{
  "version": "1.0",
  "truncation": {
    "direction": "Right",
    "max_length": 64,
    "strategy": "LongestFirst",
    "stride": 0
  },
  "padding": {
    "strategy": {
      "Fixed": 64
    },
    "direction": "Right",
    "pad_to_multiple_of": null,
    "pad_id": 0,
    "pad_type_id": 0,
    "pad_token": "[PAD]"
  },
  "added_tokens": [
    {
      "id": 0,
      "content": "[PAD]",
      "single_word": false,
      "lstrip": false,
      "rstrip": false,
      "normalized": false,
      "special": true
    },
    {
      "id": 1,
      "content": "[UNK]",
      "single_word": false,
      "lstrip": false,
      "rstrip": false,
      "normalized": false,
      "special": true
    },
    {
      "id": 2,
      "content": "[CLS]",
      "single_word": false,
      "lstrip": false,
      "rstrip": false,
      "normalized": false,
      "special": true
    },
    {
      "id": 3,
      "content": "[SEP]",
      "single_word": false,
      "lstrip": false,
      "rstrip": false,
      "normalized": false,
      "special": true
    },
    {
      "id": 4,
      "content": "[MASK]",
      "single_word": false,
      "lstrip": false,
      "rstrip": false,
      "normalized": false,
      "special": true
    }
  ],
  "normalizer": {
    "type": "BertNormalizer",
    "clean_text": true,
    "handle_chinese_chars": true,
    "strip_accents": null,
    "lowercase": true
  },
  "pre_tokenizer": {
    "type": "BertPreTokenizer"
  },
  "post_processor": {
    "type": "TemplateProcessing",
    "single": [
      {
        "SpecialToken": {
          "id": "[CLS]",
          "type_id": 0
        }
      },
      {
        "Sequence": {
          "id": "A",
          "type_id": 0
        }
      },
      {
        "SpecialToken": {
          "id": "[SEP]",
          "type_id": 0
        }
      }
    ],
    "pair": [
      {
        "SpecialToken": {
          "id": "[CLS]",
          "type_id": 0
        }
      },
      {
        "Sequence": {
          "id": "A",
          "type_id": 0
        }
      },
      {
        "SpecialToken": {
          "id": "[SEP]",
          "type_id": 0
        }
      },
      {
        "Sequence": {
          "id": "B",
          "type_id": 1
        }
      },
      {
        "SpecialToken": {
          "id": "[SEP]",
          "type_id": 1
        }
      }
    ],
    "special_tokens": {
      "[CLS]": {
        "id": "[CLS]",
        "ids": [
          2
        ],
        "tokens": [
          "[CLS]"
        ]
      },
      "[SEP]": {
        "id": "[SEP]",
        "ids": [
          3
        ],
        "tokens": [
          "[SEP]"
        ]
      }
    }
  },
  "decoder": {
    "type": "WordPiece",
    "prefix": "##",
    "cleanup": true
  },
  "model": {
    "type": "WordPiece",
    "unk_token": "[UNK]",
    "continuing_subword_prefix": "##",
    "max_input_chars_per_word": 100,
    "vocab": {
      "[PAD]": 0,
      "[UNK]": 1,
      "[CLS]": 2,
      "[SEP]": 3,
      "[MASK]": 4,
      "0": 5,
      "1": 6,
      "2": 7,
      "3": 8,
      "4": 9,
      "5": 10,
      "6": 11,
      "7": 12,
      "8": 13,
      "9": 14,
      "a": 15,
      "b": 16,
      "c": 17,
      "d": 18,
      "e": 19,
      "f": 20,
      "g": 21,
      "h": 22,
      "i": 23,
      "j": 24,
      "k": 25,
      "l": 26,
      "m": 27,
      "n": 28,
      "o": 29,
      "p": 30,
      "q": 31,
      "r": 32,
      "s": 33,
      "t": 34,
      "u": 35,
      "v": 36,
      "w": 37,
      "x": 38,
      "y": 39,
      "z": 40,
      "²": 41,
      "ð": 42,
      "ı": 43,
      "α": 44,
      "ι": 45,
      "μ": 46,
      "ν": 47,
      "τ": 48,
      "χ": 49,
      "ω": 50,
      "ا": 51,
      "ب": 52,
      "ت": 53,
      "ج": 54,
      "ح": 55,
      "د": 56,
      "ر": 57,
      "س": 58,
      "ش": 59,
      "ض": 60,
      "ط": 61,
      "ع": 62,
      "ك": 63,
      "ل": 64,
      "م": 65,
      "ن": 66,
      "ه": 67,
      "و": 68,
      "ي": 69,
      "ค": 70,
      "ง": 71,
      "จ": 72,
      "ช": 73,
      "ซ": 74,
      "ณ": 75,
      "ด": 76,
      "ต": 77,
      "ท": 78,
      "ธ": 79,
      "น": 80,
      "บ": 81,
      "ป": 82,
      "ผ": 83,
      "พ": 84,
      "ม": 85,
      "ย": 86,
      "ร": 87,
      "ล": 88,
      "ว": 89,
      "ห": 90,
      "อ": 91,
      "ะ": 92,
      "า": 93,
      "เ": 94,
      "แ": 95,
      "ใ": 96,
      "ไ": 97,
      "ᄀ": 98,
      "ᄂ": 99,
      "ᄃ": 100,
      "ᄅ": 101,
      "ᄆ": 102,
      "ᄇ": 103,
      "ᄉ": 104,
      "ᄋ": 105,
      "ᄌ": 106,
      "ᄎ": 107,
      "ᄏ": 108,
      "ᄐ": 109,
      "ᄑ": 110,
      "ᄒ": 111,
      "ᅠ": 112,
      "ᅡ": 113,
      "ᅢ": 114,
      "ᅥ": 115,
      "ᅦ": 116,
      "ᅧ": 117,
      "ᅩ": 118,
      "ᅪ": 119,
      "ᅮ": 120,
      "ᅱ": 121,
      "ᅳ": 122,
      "ᅴ": 123,
      "ᅵ": 124,
      "ᆨ": 125,
      "ᆫ": 126,
      "ᆭ": 127,
      "ᆯ": 128,
      "ᆷ": 129,
      "ᆺ": 130,
      "ᆼ": 131,
      "ᆾ": 132,
      "ᇀ": 133,
      "ᴬ": 134,
      "ᴰ": 135,
      "ᴺ": 136,
      "ᴿ": 137,
      "ᵀ": 138,
      "⅓": 139,
      "シ": 140,
      "ㅋ": 141,
      "ㆁ": 142,
      "利": 143,
      "明": 144,
      "機": 145,
      "益": 146,
      "里": 147,
      "関": 148,
      "𓃵": 149,
      "𝐀": 150,
      "𝐁": 151,
      "𝐂": 152,
      "𝐃": 153,
      "𝐄": 154,
      "𝐅": 155,
      "𝐆": 156,
      "𝐈": 157,
      "𝐉": 158,
      "𝐊": 159,
      "𝐋": 160,
      "𝐌": 161,
      "𝐍": 162,
      "𝐎": 163,
      "𝐏": 164,
      "𝐑": 165,
      "𝐒": 166,
      "𝐓": 167,
      "𝐚": 168,
      "𝐛": 169,
      "𝐜": 170,
      "𝐝": 171,
      "𝐞": 172,
      "𝐠": 173,
      "𝐡": 174,
      "𝐢": 175,
      "𝐤": 176,
      "𝐥": 177,
      "𝐦": 178,
      "𝐧": 179,
      "𝐨": 180,
      "𝐫": 181,
      "𝐬": 182,
      "𝐭": 183,
      "𝐮": 184,
      "𝑎": 185,
      "𝑒": 186,
      "𝑔": 187,
      "𝑘": 188,
      "𝑙": 189,
      "𝑚": 190,
      "𝑛": 191,
      "𝑜": 192,
      "𝑝": 193,
      "𝑞": 194,
      "𝑟": 195,
      "𝑠": 196,
      "𝑡": 197,
      "𝑢": 198,
      "𝑦": 199,
      "𝒂": 200,
      "𝒄": 201,
      "𝒅": 202,
      "𝒆": 203,
      "𝒈": 204,
      "𝒉": 205,
      "𝒊": 206,
      "𝒋": 207,
      "𝒍": 208,
      "𝒏": 209,
      "𝒐": 210,
      "𝒗": 211,
      "𝒚": 212,
      "𝕏": 213,
      "𝗔": 214,
      "𝗗": 215,
      "𝗮": 216,
      "𝗲": 217,
      "𝗶": 218,
      "𝗺": 219,
      "𝗻": 220,
      "𝗽": 221,
      "𝗿": 222,
      "𝘀": 223,
      "𝘁": 224,
      "𝘂": 225,
      "𝘉": 226,
      "𝘐": 227,
      "𝘓": 228,
      "𝘔": 229,
      "𝘛": 230,
      "𝘢": 231,
      "𝘣": 232,
      "𝘥": 233,
      "𝘦": 234,
      "𝘨": 235,
      "𝘩": 236,
      "𝘪": 237,
      "𝘬": 238,
      "𝘭": 239,
      "𝘮": 240,
      "𝘯": 241,
      "𝘰": 242,
      "𝘱": 243,
      "𝘴": 244,
      "𝘵": 245,
      "𝘶": 246,
      "𝘺": 247,
      "𝘼": 248,
      "𝘽": 249,
      "𝙀": 250,
      "𝙁": 251,
      "𝙂": 252,
      "𝙄": 253,
      "𝙆": 254,
      "𝙇": 255,
      "𝙈": 256,
      "𝙉": 257,
      "𝙊": 258,
      "𝙋": 259,
      "𝙎": 260,
      "𝙏": 261,
      "𝙖": 262,
      "𝙚": 263,
      "𝙞": 264,
      "𝙠": 265,
      "𝙡": 266,
      "𝙢": 267,
      "𝙣": 268,
      "𝙥": 269,
      "𝙨": 270,
      "𝙪": 271,
      "𝙰": 272,
      "𝙳": 273,
      "𝙵": 274,
      "𝙸": 275,
      "𝙺": 276,
      "𝙻": 277,
      "𝙽": 278,
      "𝚁": 279,
      "𝚃": 280,
      "𝚈": 281,
      "𝚊": 282,
      "𝚋": 283,
      "𝚍": 284,
      "𝚎": 285,
      "𝚐": 286,
      "𝚗": 287,
      "𝚘": 288,
      "𝚙": 289,
      "𝚛": 290,
      "𝚝": 291,
      "𝚞": 292,
      "##i": 293,
      "##k": 294,
      "##r": 295,
      "##n": 296,
      "##p": 297,
      "##e": 298,
      "##t": 299,
      "##a": 300,
      "##m": 301,
      "##u": 302,
      "##g": 303,
      "##h": 304,
      "##s": 305,
      "##w": 306,
      "##f": 307,
      "##o": 308,
      "##d": 309,
      "##c": 310,
      "##b": 311,
      "##y": 312,
      "##l": 313,
      "##v": 314,
      "##z": 315,
      "##j": 316,
      "##2": 317,
      "##6": 318,
      "##0": 319,
      "##1": 320,
      "##7": 321,
      "##²": 322,
      "##x": 323,
      "##5": 324,
      "##4": 325,
      "##𝘁": 326,
      "##𝘂": 327,
      "##3": 328,
      "##9": 329,
      "##8": 330,
      "##𝑎": 331,
      "##𝑙": 332,
      "##𝑢": 333,
      "##𝑝": 334,
      "##𝑛": 335,
      "##q": 336,
      "##𝐊": 337,
      "##𝐍": 338,
      "##𝘢": 339,
      "##𝘬": 340,
      "##𝘯": 341,
      "##𝘺": 342,
      "##𝗮": 343,
      "##𝗻": 344,
      "##𝗿": 345,
      "##ل": 346,
      "##ه": 347,
      "##ا": 348,
      "##ت": 349,
      "##ح": 350,
      "##د": 351,
      "##ม": 352,
      "##อ": 353,
      "##น": 354,
      "##ไ": 355,
      "##ง": 356,
      "##จ": 357,
      "##ะ": 358,
      "##ใ": 359,
      "##ค": 360,
      "##ร": 361,
      "##ห": 362,
      "##ล": 363,
      "##𝘪": 364,
      "##シ": 365,
      "##ᅢ": 366,
      "##ᆺ": 367,
      "##ᄉ": 368,
      "##ᅡ": 369,
      "##ᆯ": 370,
      "##ᄀ": 371,
      "##ᇀ": 372,
      "##ᄋ": 373,
      "##ᅳ": 374,
      "##ᆫ": 375,
      "##ᄅ": 376,
      "##ᆼ": 377,
      "##ᄃ": 378,
      "##ᅮ": 379,
      "##ᅵ": 380,
      "##ᅩ": 381,
      "##ᅧ": 382,
      "##ᆷ": 383,
      "##ᄑ": 384,
      "##𝐢": 385,
      "##𝐥": 386,
      "##𝐮": 387,
      "##𝐧": 388,
      "##𝐜": 389,
      "##𝐫": 390,
      "##𝐤": 391,
      "##𝐚": 392,
      "##𝙁": 393,
      "##𝙪": 394,
      "##𝙠": 395,
      "##𝙖": 396,
      "##𝙣": 397,
      "##𝘰": 398,
      "##𝘵": 399,
      "##𝘭": 400,
      "##𝐞": 401,
      "##𝐬": 402,
      "##𝙡": 403,
      "##𝐨": 404,
      "##𝐦": 405,
      "##𝐑": 406,
      "##𝐄": 407,
      "##𝐀": 408,
      "##𝐈": 409,
      "##𝐆": 410,
      "##𝒂": 411,
      "##𝒊": 412,
      "##𝒍": 413,
      "##𝒚": 414,
      "##ป": 415,
      "##ด": 416,
      "##บ": 417,
      "##า": 418,
      "##ว": 419,
      "##ท": 420,
      "##ณ": 421,
      "##ช": 422,
      "##ᅦ": 423,
      "##ᄌ": 424,
      "##ᅥ": 425,
      "##ᅴ": 426,
      "##ᄇ": 427,
      "##ı": 428,
      "##𝘩": 429,
      "##𝑔": 430,
      "##𝑒": 431,
      "##𝑟": 432,
      "##𝑠": 433,
      "##𝑜": 434,
      "##𝘶": 435,
      "##𝐡": 436,
      "##𝐭": 437,
      "##𝗲": 438,
      "##𝘀": 439,
      "##𝗺": 440,
      "##พ": 441,
      "##ธ": 442,
      "##แ": 443,
      "##ซ": 444,
      "##ต": 445,
      "##𝘴": 446,
      "##𝘦": 447,
      "##𝘥": 448,
      "##μ": 449,
      "##ι": 450,
      "##ν": 451,
      "##τ": 452,
      "##α": 453,
      "##𝐃": 454,
      "##𝐒": 455,
      "##𝚊": 456,
      "##𝚗": 457,
      "##𝚐": 458,
      "##𝙚": 459,
      "##𝙨": 460,
      "##𝙞": 461,
      "##𝙢": 462,
      "##𝘮": 463,
      "##𝙇": 464,
      "##𝙊": 465,
      "##𝘽": 466,
      "##𝘼": 467,
      "##𝙄": 468,
      "##𝙎": 469,
      "##𝙏": 470,
      "##و": 471,
      "##م": 472,
      "##ب": 473,
      "##ي": 474,
      "##ن": 475,
      "##ย": 476,
      "##𝑡": 477,
      "##𝘱": 478,
      "##𝗽": 479,
      "##𝒐": 480,
      "##𝒏": 481,
      "##𝒗": 482,
      "##𝒆": 483,
      "##𝒈": 484,
      "##𝒄": 485,
      "##𝒉": 486,
      "##𝙈": 487,
      "##𝙆": 488,
      "##ض": 489,
      "##ج": 490,
      "##ع": 491,
      "##ط": 492,
      "##ر": 493,
      "##𝘣": 494,
      "##𝘨": 495,
      "##𓃵": 496,
      "##𝐌": 497,
      "##ᅠ": 498,
      "##𝙋": 499,
      "##ㅋ": 500,
      "##ผ": 501,
      "##𝙸": 502,
      "##𝙽": 503,
      "##𝙺": 504,
      "##ᄒ": 505,
      "##ᅪ": 506,
      "##ᆾ": 507,
      "##ᄂ": 508,
      "##ᄆ": 509,
      "##س": 510,
      "##𝐓": 511,
      "##ᄎ": 512,
      "##ᄏ": 513,
      "##ᆨ": 514,
      "##ᆭ": 515,
      "##𝚎": 516,
      "##𝚛": 517,
      "##ش": 518,
      "##ك": 519,
      "##𝚘": 520,
      "##𝚞": 521,
      "##𝚙": 522,
      "##𝙰": 523,
      "##𝙵": 524,
      "##𝚃": 525,
      "##𝚁": 526,
      "##𝚍": 527,
      "##ᴬ": 528,
      "##ᴺ": 529,
      "##ᵀ": 530,
      "##ᴿ": 531,
      "##𝙂": 532,
      "##ᅱ": 533,
      "##𝐠": 534,
      "##𝐛": 535,
      "##𝑦": 536,
      "##ω": 537,
      "##ㆁ": 538,
      "##𝐎": 539,
      "##𝐏": 540,
      "##an": 541,
      "##ta": 542,
      "##ra": 543,
      "dan": 544,
      "##si": 545,
      "##er": 546,
      "##anta": 547,
      "##antara": 548,
      "danantara": 549,
      "##en": 550,
      "##ang": 551,
      "##ya": 552,
      "##on": 553,
      "##in": 554,
      "##al": 555,
      "##at": 556,
      "in": 557,
      "##ar": 558,
      "##un": 559,
      "##es": 560,
      "##ah": 561,
      "##ak": 562,
      "##em": 563,
      "di": 564,
      "##uk": 565,
      "##or": 566,
      "##as": 567,
      "##el": 568,
      "##eng": 569,
      "##ves": 570,
      "##eg": 571,
      "##am": 572,
      "##tasi": 573,
      "##vestasi": 574,
      "##kan": 575,
      "##ad": 576,
      "##om": 577,
      "##eb": 578,
      "##omi": 579,
      "##kon": 580,
      "ter": 581,
      "##is": 582,
      "##ap": 583,
      "##aya": 584,
      "##esi": 585,
      "##asi": 586,
      "##um": 587,
      "##konomi": 588,
      "##ti": 589,
      "##eri": 590,
      "##bang": 591,
      "##sin": 592,
      "ekonomi": 593,
      "ber": 594,
      "##ol": 595,
      "ke": 596,
      "##ag": 597,
      "yang": 598,
      "##nya": 599,
      "##adi": 600,
      "##tu": 601,
      "##ih": 602,
      "per": 603,
      "##bangun": 604,
      "ind": 605,
      "##onesi": 606,
      "##us": 607,
      "##per": 608,
      "##por": 609,
      "##ik": 610,
      "##egeri": 611,
      "indonesi": 612,
      "men": 613,
      "##osin": 614,
      "danantarapor": 615,
      "danantaraporosin": 616,
      "danantaraporosinvestasi": 617,
      "##ara": 618,
      "##ek": 619,
      "##ing": 620,
      "##bangunn": 621,
      "danantarabangunn": 622,
      "danantarabangunnegeri": 623,
      "indonesia": 624,
      "##ung": 625,
      "investasi": 626,
      "deng": 627,
      "##caya": 628,
      "dengan": 629,
      "##uat": 630,
      "##tuk": 631,
      "##il": 632,
      "##ita": 633,
      "un": 634,
      "##era": 635,
      "##ari": 636,
      "##et": 637,
      "##percaya": 638,
      "ini": 639,
      "##ju": 640,
      "leb": 641,
      "##ep": 642,
      "terpercaya": 643,
      "##ur": 644,
      "ad": 645,
      "lebih": 646,
      "untuk": 647,
      "##uh": 648,
      "jadi": 649,
      "##ai": 650,
      "pem": 651,
      "yg": 652,
      "pr": 653,
      "mem": 654,
      "##ok": 655,
      "##au": 656,
      "##ab": 657,
      "mas": 658,
      "##umn": 659,
      "##aw": 660,
      "bumn": 661,
      "##up": 662,
      "bis": 663,
      "##anya": 664,
      "peng": 665,
      "##ga": 666,
      "##ul": 667,
      "dari": 668,
      "##ama": 669,
      "##id": 670,
      "##it": 671,
      "##agi": 672,
      "bisa": 673,
      "sem": 674,
      "an": 675,
      "kita": 676,
      "##ow": 677,
      "se": 678,
      "##isi": 679,
      "##ir": 680,
      "##ja": 681,
      "##ut": 682,
      "neg": 683,
      "##gi": 684,
      "meng": 685,
      "buat": 686,
      "ada": 687,
      "ap": 688,
      "si": 689,
      "itu": 690,
      "negara": 691,
      "##elol": 692,
      "pen": 693,
      "##tah": 694,
      "tr": 695,
      "kal": 696,
      "##angk": 697,
      "as": 698,
      "##elola": 699,
      "bar": 700,
      "##alah": 701,
      "##onal": 702,
      "##tor": 703,
      "##kat": 704,
      "##im": 705,
      "##erin": 706,
      "##ensi": 707,
      "mak": 708,
      "##alam": 709,
      "##ong": 710,
      "ng": 711,
      "ef": 712,
      "##erintah": 713,
      "pemerintah": 714,
      "pro": 715,
      "##pi": 716,
      "##orup": 717,
      "baru": 718,
      "##ud": 719,
      "##epan": 720,
      "##ukung": 721,
      "sek": 722,
      "##asional": 723,
      "##angan": 724,
      "##ana": 725,
      "dalam": 726,
      "##ub": 727,
      "ban": 728,
      "##ri": 729,
      "seb": 730,
      "##owo": 731,
      "##rab": 732,
      "##umb": 733,
      "##eh": 734,
      "aset": 735,
      "##ukan": 736,
      "nasional": 737,
      "depan": 738,
      "korup": 739,
      "ga": 740,
      "efisi": 741,
      "##aran": 742,
      "##rabowo": 743,
      "##ati": 744,
      "ba": 745,
      "akan": 746,
      "masa": 747,
      "bang": 748,
      "##ans": 749,
      "##amp": 750,
      "po": 751,
      "##tan": 752,
      "op": 753,
      "ma": 754,
      "##api": 755,
      "##ew": 756,
      "##yat": 757,
      "##ua": 758,
      "rak": 759,
      "aja": 760,
      "memb": 761,
      "trans": 762,
      "##rat": 763,
      "am": 764,
      "or": 765,
      "##tim": 766,
      "ya": 767,
      "bers": 768,
      "mel": 769,
      "siap": 770,
      "kem": 771,
      "##tif": 772,
      "rakyat": 773,
      "bpi": 774,
      "st": 775,
      "dukung": 776,
      "##uju": 777,
      "berk": 778,
      "##ob": 779,
      "##tam": 780,
      "##angkah": 781,
      "nya": 782,
      "##akan": 783,
      "##umbuh": 784,
      "sa": 785,
      "##ov": 786,
      "##den": 787,
      "##ergi": 788,
      "pert": 789,
      "prabowo": 790,
      "bagi": 791,
      "##unc": 792,
      "##adir": 793,
      "##ada": 794,
      "##esar": 795,
      "apa": 796,
      "efisiensi": 797,
      "ju": 798,
      "##usi": 799,
      "##agai": 800,
      "langkah": 801,
      "##esiden": 802,
      "##ian": 803,
      "pak": 804,
      "menj": 805,
      "ak": 806,
      "##ed": 807,
      "makin": 808,
      "mau": 809,
      "gak": 810,
      "##umbuhan": 811,
      "pertumbuhan": 812,
      "presiden": 813,
      "##ikin": 814,
      "dik": 815,
      "man": 816,
      "##st": 817,
      "bank": 818,
      "optim": 819,
      "kek": 820,
      "##od": 821,
      "##ata": 822,
      "tapi": 823,
      "pel": 824,
      "##dah": 825,
      "semua": 826,
      "pas": 827,
      "##epat": 828,
      "bersama": 829,
      "##rateg": 830,
      "juga": 831,
      "strateg": 832,
      "besar": 833,
      "##sa": 834,
      "sama": 835,
      "tid": 836,
      "##ej": 837,
      "##asih": 838,
      "bikin": 839,
      "##alu": 840,
      "##awa": 841,
      "mer": 842,
      "tidak": 843,
      "##os": 844,
      "mend": 845,
      "##atan": 846,
      "lagi": 847,
      "sin": 848,
      "keb": 849,
      "pengelola": 850,
      "sel": 851,
      "inov": 852,
      "##anju": 853,
      "kon": 854,
      "bi": 855,
      "##erak": 856,
      "dana": 857,
      "korupsi": 858,
      "ata": 859,
      "baik": 860,
      "ol": 861,
      "bukan": 862,
      "har": 863,
      "kalau": 864,
      "orang": 865,
      "ben": 866,
      "hadir": 867,
      "##tur": 868,
      "dib": 869,
      "##alan": 870,
      "##ekonomi": 871,
      "##oh": 872,
      "##ib": 873,
      "##ia": 874,
      "uang": 875,
      "##ent": 876,
      "adalah": 877,
      "bak": 878,
      "kar": 879,
      "kalo": 880,
      "kes": 881,
      "##ain": 882,
      "##sing": 883,
      "##aj": 884,
      "du": 885,
      "##unya": 886,
      "tan": 887,
      "##00": 888,
      "ik": 889,
      "ker": 890,
      "##orm": 891,
      "##ena": 892,
      "bel": 893,
      "pertam": 894,
      "##kw": 895,
      "##anyak": 896,
      "sebagai": 897,
      "##arap": 898,
      "pada": 899,
      "bah": 900,
      "##angat": 901,
      "kep": 902,
      "##anjutan": 903,
      "sinergi": 904,
      "oleh": 905,
      "##amb": 906,
      "##ip": 907,
      "ang": 908,
      "kan": 909,
      "kuat": 910,
      "asing": 911,
      "sol": 912,
      "##form": 913,
      "banyak": 914,
      "udah": 915,
      "duit": 916,
      "##erah": 917,
      "##elap": 918,
      "##ewat": 919,
      "dip": 920,
      "en": 921,
      "menjadi": 922,
      "##ingkat": 923,
      "em": 924,
      "##udah": 925,
      "lewat": 926,
      "##tik": 927,
      "maju": 928,
      "sektor": 929,
      "al": 930,
      "berkel": 931,
      "##and": 932,
      "##paran": 933,
      "inovasi": 934,
      "posi": 935,
      "##okow": 936,
      "bakal": 937,
      "##orong": 938,
      "transparan": 939,
      "##angg": 940,
      "##bangunan": 941,
      "pembangunan": 942,
      "berkelanjutan": 943,
      "##formasi": 944,
      "##lah": 945,
      "##rakat": 946,
      "masya": 947,
      "##rasi": 948,
      "masyarakat": 949,
      "dig": 950,
      "dem": 951,
      "terus": 952,
      "##aha": 953,
      "##atif": 954,
      "##ot": 955,
      "##inya": 956,
      "inves": 957,
      "lu": 958,
      "harus": 959,
      "so": 960,
      "##itas": 961,
      "##awas": 962,
      "atau": 963,
      "##ses": 964,
      "##okowi": 965,
      "kr": 966,
      "##op": 967,
      "##gn": 968,
      "##tar": 969,
      "##asil": 970,
      "##ini": 971,
      "##uka": 972,
      "##aham": 973,
      "##akin": 974,
      "##annya": 975,
      "beri": 976,
      "##isasi": 977,
      "20": 978,
      "amp": 979,
      "pengawas": 980,
      "sen": 981,
      "##ahan": 982,
      "##emb": 983,
      "##ruk": 984,
      "karena": 985,
      "daya": 986,
      "gl": 987,
      "##obal": 988,
      "##elas": 989,
      "strategis": 990,
      "global": 991,
      "##tera": 992,
      "masuk": 993,
      "##ina": 994,
      "##eka": 995,
      "##esm": 996,
      "##asa": 997,
      "transformasi": 998,
      "##pk": 999,
      "##ahtera": 1000,
      "##fa": 1001,
      "optimal": 1002,
      "positif": 1003,
      "pol": 1004,
      "##ili": 1005,
      "dis": 1006,
      "masih": 1007,
      "##uncur": 1008,
      "##ting": 1009,
      "jokowi": 1010,
      "##ruktur": 1011,
      "##dir": 1012,
      "pengelolaan": 1013,
      "terb": 1014,
      "##pa": 1015,
      "##utu": 1016,
      "##ikan": 1017,
      "##cepat": 1018,
      "kl": 1019,
      "##ital": 1020,
      "inf": 1021,
      "punya": 1022,
      "pot": 1023,
      "##unia": 1024,
      "##ebat": 1025,
      "mul": 1026,
      "##ukum": 1027,
      "##aju": 1028,
      "##ind": 1029,
      "##bg": 1030,
      "mereka": 1031,
      "sudah": 1032,
      "mod": 1033,
      "sih": 1034,
      "##anti": 1035,
      "##atu": 1036,
      "##ter": 1037,
      "harap": 1038,
      "is": 1039,
      "##ram": 1040,
      "menuju": 1041,
      "##pr": 1042,
      "##agelap": 1043,
      "##to": 1044,
      "dukungan": 1045,
      "indonesiagelap": 1046,
      "##apat": 1047,
      "##ukses": 1048,
      "bawa": 1049,
      "##aga": 1050,
      "##uruh": 1051,
      "percaya": 1052,
      "potensi": 1053,
      "hukum": 1054,
      "ut": 1055,
      "dunia": 1056,
      "##kin": 1057,
      "angg": 1058,
      "##arang": 1059,
      "re": 1060,
      "##da": 1061,
      "kaya": 1062,
      "ag": 1063,
      "memper": 1064,
      "dil": 1065,
      "##wa": 1066,
      "##adan": 1067,
      "##ulu": 1068,
      "th": 1069,
      "saya": 1070,
      "cum": 1071,
      "kel": 1072,
      "prog": 1073,
      "##uang": 1074,
      "##diri": 1075,
      "##eta": 1076,
      "seper": 1077,
      "berkat": 1078,
      "dim": 1079,
      "##ajuan": 1080,
      "samp": 1081,
      "penting": 1082,
      "demi": 1083,
      "kemajuan": 1084,
      "tah": 1085,
      "tak": 1086,
      "harapan": 1087,
      "semangat": 1088,
      "kas": 1089,
      "##oga": 1090,
      "dikelola": 1091,
      "##cara": 1092,
      "##yek": 1093,
      "tem": 1094,
      "##tung": 1095,
      "banget": 1096,
      "pemb": 1097,
      "pertamina": 1098,
      "kok": 1099,
      "negeri": 1100,
      "##ali": 1101,
      "digital": 1102,
      "##ujud": 1103,
      "pasti": 1104,
      "soal": 1105,
      "ken": 1106,
      "nyata": 1107,
      "cerah": 1108,
      "##ay": 1109,
      "berd": 1110,
      "koruptor": 1111,
      "us": 1112,
      "##ejahtera": 1113,
      "##faat": 1114,
      "##struktur": 1115,
      "para": 1116,
      "##ihat": 1117,
      "solusi": 1118,
      "202": 1119,
      "kol": 1120,
      "perekonomi": 1121,
      "##ingkatkan": 1122,
      "badan": 1123,
      "jangan": 1124,
      "sukses": 1125,
      "bangsa": 1126,
      "perekonomian": 1127,
      "##kuat": 1128,
      "infra": 1129,
      "##ejahteraan": 1130,
      "dia": 1131,
      "kesejahteraan": 1132,
      "##ilang": 1133,
      "##embang": 1134,
      "##ue": 1135,
      "semoga": 1136,
      "pend": 1137,
      "sekarang": 1138,
      "infrastruktur": 1139,
      "##ca": 1140,
      "##ayaan": 1141,
      "seperti": 1142,
      "biar": 1143,
      "##alui": 1144,
      "gerak": 1145,
      "##aik": 1146,
      "melalui": 1147,
      "##abat": 1148,
      "malah": 1149,
      "mbg": 1150,
      "investor": 1151,
      "cuma": 1152,
      "seg": 1153,
      "##uan": 1154,
      "program": 1155,
      "##arik": 1156,
      "optimis": 1157,
      "kom": 1158,
      "lah": 1159,
      "kasus": 1160,
      "jd": 1161,
      "perub": 1162,
      "anggaran": 1163,
      "##uatan": 1164,
      "perubahan": 1165,
      "##ugi": 1166,
      "peluang": 1167,
      "saat": 1168,
      "##ust": 1169,
      "##orasi": 1170,
      "menc": 1171,
      "proyek": 1172,
      "utk": 1173,
      "##itu": 1174,
      "##dh": 1175,
      "sej": 1176,
      "bl": 1177,
      "##ampak": 1178,
      "##rah": 1179,
      "dorong": 1180,
      "##tm": 1181,
      "saham": 1182,
      "energi": 1183,
      "bener": 1184,
      "##hebat": 1185,
      "ko": 1186,
      "##bil": 1187,
      "##das": 1188,
      "efisien": 1189,
      "kam": 1190,
      "##anj": 1191,
      "strategi": 1192,
      "saja": 1193,
      "##usaha": 1194,
      "##ekonomihebat": 1195,
      "##ij": 1196,
      "gerakcepat": 1197,
      "ser": 1198,
      "gerakcepatekonomihebat": 1199,
      "##ika": 1200,
      "jelas": 1201,
      "##bn": 1202,
      "##awab": 1203,
      "##mp": 1204,
      "dapat": 1205,
      "dulu": 1206,
      "semakin": 1207,
      "mana": 1208,
      "bera": 1209,
      "membawa": 1210,
      "##ani": 1211,
      "##entuk": 1212,
      "satu": 1213,
      "modal": 1214,
      "lain": 1215,
      "##me": 1216,
      "dir": 1217,
      "mah": 1218,
      "##aborasi": 1219,
      "saing": 1220,
      "transparansi": 1221,
      "aw": 1222,
      "##ck": 1223,
      "prof": 1224,
      "##tangan": 1225,
      "##kwkw": 1226,
      "##imp": 1227,
      "hanya": 1228,
      "##gerak": 1229,
      "mendukung": 1230,
      "salah": 1231,
      "##iat": 1232,
      "##lik": 1233,
      "kekayaan": 1234,
      "berb": 1235,
      "mari": 1236,
      "bantu": 1237,
      "tuh": 1238,
      "##anc": 1239,
      "kekuatan": 1240,
      "##mu": 1241,
      "ting": 1242,
      "##jadi": 1243,
      "secara": 1244,
      "##ungkin": 1245,
      "pl": 1246,
      "##osan": 1247,
      "kolaborasi": 1248,
      "##ingan": 1249,
      "hasil": 1250,
      "komi": 1251,
      "tantangan": 1252,
      "##was": 1253,
      "##elah": 1254,
      "##apa": 1255,
      "su": 1256,
      "berh": 1257,
      "##ic": 1258,
      "keh": 1259,
      "sk": 1260,
      "seti": 1261,
      "hari": 1262,
      "kerja": 1263,
      "meny": 1264,
      "##itik": 1265,
      "mengh": 1266,
      "##ig": 1267,
      "##ujudkan": 1268,
      "##und": 1269,
      "berita": 1270,
      "jalan": 1271,
      "##ev": 1272,
      "##asan": 1273,
      "set": 1274,
      "gw": 1275,
      "nanti": 1276,
      "##tara": 1277,
      "kelola": 1278,
      "dgn": 1279,
      "##ejabat": 1280,
      "mengelola": 1281,
      "kons": 1282,
      "gag": 1283,
      "##uar": 1284,
      "##indonesi": 1285,
      "##iliun": 1286,
      "##ipta": 1287,
      "##tikan": 1288,
      "##akah": 1289,
      "##tinya": 1290,
      "gim": 1291,
      "min": 1292,
      "tau": 1293,
      "belum": 1294,
      "tahun": 1295,
      "pejabat": 1296,
      "##indonesia": 1297,
      "aku": 1298,
      "siapa": 1299,
      "dr": 1300,
      "##urus": 1301,
      "agar": 1302,
      "##ers": 1303,
      "##tama": 1304,
      "##ru": 1305,
      "apbn": 1306,
      "pin": 1307,
      "kayak": 1308,
      "##lu": 1309,
      "triliun": 1310,
      "manfaat": 1311,
      "tek": 1312,
      "kab": 1313,
      "sta": 1314,
      "##ni": 1315,
      "##alkan": 1316,
      "mantan": 1317,
      "##aling": 1318,
      "jika": 1319,
      "gue": 1320,
      "##mas": 1321,
      "gimana": 1322,
      "kata": 1323,
      "##usahaan": 1324,
      "##ec": 1325,
      "##tmen": 1326,
      "tp": 1327,
      "pil": 1328,
      "tepat": 1329,
      "##uncurkan": 1330,
      "##unj": 1331,
      "##alagi": 1332,
      "##ijakan": 1333,
      "sb": 1334,
      "visi": 1335,
      "lemb": 1336,
      "##ala": 1337,
      "##ungan": 1338,
      "ti": 1339,
      "anj": 1340,
      "##sinya": 1341,
      "##ilik": 1342,
      "##gak": 1343,
      "pub": 1344,
      "setiap": 1345,
      "##ern": 1346,
      "dl": 1347,
      "##ist": 1348,
      "klo": 1349,
      "org": 1350,
      "bg": 1351,
      "kpk": 1352,
      "perusahaan": 1353,
      "gagal": 1354,
      "##iden": 1355,
      "apalagi": 1356,
      "isu": 1357,
      "apakah": 1358,
      "##ogi": 1359,
      "dew": 1360,
      "kunc": 1361,
      "nih": 1362,
      "tanpa": 1363,
      "emas": 1364,
      "##iptakan": 1365,
      "##ac": 1366,
      "bag": 1367,
      "##yo": 1368,
      "terl": 1369,
      "ikn": 1370,
      "rp": 1371,
      "##usantara": 1372,
      "pertama": 1373,
      "##angs": 1374,
      "dit": 1375,
      "do": 1376,
      "##tal": 1377,
      "seh": 1378,
      "penuh": 1379,
      "politik": 1380,
      "era": 1381,
      "resm": 1382,
      "##impin": 1383,
      "terk": 1384,
      "utama": 1385,
      "buk": 1386,
      "sangat": 1387,
      "bareng": 1388,
      "anak": 1389,
      "tekn": 1390,
      "ar": 1391,
      "bu": 1392,
      "##sg": 1393,
      "pasar": 1394,
      "##utuh": 1395,
      "pake": 1396,
      "kunci": 1397,
      "bagus": 1398,
      "ab": 1399,
      "mungkin": 1400,
      "uu": 1401,
      "emang": 1402,
      "nusantara": 1403,
      "aman": 1404,
      "teta": 1405,
      "kebijakan": 1406,
      "##duk": 1407,
      "sub": 1408,
      "sed": 1409,
      "##angsung": 1410,
      "tangg": 1411,
      "##ologi": 1412,
      "##ikir": 1413,
      "krn": 1414,
      "jawab": 1415,
      "ment": 1416,
      "beg": 1417,
      "bpk": 1418,
      "##tas": 1419,
      "sby": 1420,
      "ny": 1421,
      "td": 1422,
      "komitmen": 1423,
      "##ump": 1424,
      "solid": 1425,
      "dipak": 1426,
      "tim": 1427,
      "##ira": 1428,
      "##aud": 1429,
      "ek": 1430,
      "inisi": 1431,
      "lembaga": 1432,
      "##ding": 1433,
      "bangun": 1434,
      "langsung": 1435,
      "teknologi": 1436,
      "##aa": 1437,
      "bahwa": 1438,
      "kec": 1439,
      "##ungg": 1440,
      "sampai": 1441,
      "##adapi": 1442,
      "##apak": 1443,
      "efek": 1444,
      "yuk": 1445,
      "ikut": 1446,
      "kehadir": 1447,
      "##apai": 1448,
      "memperkuat": 1449,
      "sp": 1450,
      "memberi": 1451,
      "ih": 1452,
      "kehadiran": 1453,
      "mo": 1454,
      "tol": 1455,
      "kont": 1456,
      "did": 1457,
      "##usif": 1458,
      "awal": 1459,
      "##umber": 1460,
      "om": 1461,
      "yakin": 1462,
      "##ond": 1463,
      "membangun": 1464,
      "##asek": 1465,
      "hal": 1466,
      "komp": 1467,
      "##unjuk": 1468,
      "id": 1469,
      "##rak": 1470,
      "peluncur": 1471,
      "kenapa": 1472,
      "beb": 1473,
      "dah": 1474,
      "tdk": 1475,
      "publik": 1476,
      "wak": 1477,
      "##idup": 1478,
      "##hir": 1479,
      "##nis": 1480,
      "sumber": 1481,
      "produk": 1482,
      "bgt": 1483,
      "wujudkan": 1484,
      "tinggi": 1485,
      "br": 1486,
      "##ihan": 1487,
      "kalian": 1488,
      "##le": 1489,
      "ihsg": 1490,
      "##ban": 1491,
      "jg": 1492,
      "##erasi": 1493,
      "ing": 1494,
      "bapak": 1495,
      "##entang": 1496,
      "atas": 1497,
      "##aman": 1498,
      "dpr": 1499,
      "##ono": 1500,
      "peran": 1501,
      "lok": 1502,
      "##ebut": 1503,
      "##esional": 1504,
      "tingkatkan": 1505,
      "masalah": 1506,
      "kami": 1507,
      "peluncuran": 1508,
      "ketu": 1509,
      "keluar": 1510,
      "resmi": 1511,
      "##nyata": 1512,
      "profesional": 1513,
      "##lim": 1514,
      "inovatif": 1515,
      "##bers": 1516,
      "dampak": 1517,
      "mera": 1518,
      "beli": 1519,
      "##audit": 1520,
      "div": 1521,
      "sendiri": 1522,
      "2025": 1523,
      "optimalkan": 1524,
      "dewan": 1525,
      "##ingga": 1526,
      "ayo": 1527,
      "dih": 1528,
      "perlu": 1529,
      "##abis": 1530,
      "##ont": 1531,
      "##amin": 1532,
      "##ng": 1533,
      "##sim": 1534,
      "mendorong": 1535,
      "sep": 1536,
      "##ianto": 1537,
      "##ilai": 1538,
      "##ark": 1539,
      "tuju": 1540,
      "bangk": 1541,
      "##asis": 1542,
      "##okus": 1543,
      "aud": 1544,
      "tentang": 1545,
      "##end": 1546,
      "ch": 1547,
      "makan": 1548,
      "bilang": 1549,
      "##enc": 1550,
      "inisiatif": 1551,
      "bisnis": 1552,
      "##emp": 1553,
      "optimalisasi": 1554,
      "nggak": 1555,
      "setelah": 1556,
      "cara": 1557,
      "##ura": 1558,
      "##uu": 1559,
      "##entukan": 1560,
      "gini": 1561,
      "lo": 1562,
      "##20": 1563,
      "audit": 1564,
      "tarik": 1565,
      "anag": 1566,
      "iklim": 1567,
      "sm": 1568,
      "mandiri": 1569,
      "temasek": 1570,
      "##idasi": 1571,
      "##ajak": 1572,
      "##ayar": 1573,
      "berdaya": 1574,
      "pertamax": 1575,
      "##mana": 1576,
      "meningkatkan": 1577,
      "kota": 1578,
      "berkembang": 1579,
      "ketua": 1580,
      "anagata": 1581,
      "##uasa": 1582,
      "inter": 1583,
      "##oba": 1584,
      "##untung": 1585,
      "##aku": 1586,
      "cer": 1587,
      "ters": 1588,
      "##awasi": 1589,
      "luh": 1590,
      "ri": 1591,
      "wkwkw": 1592,
      "usaha": 1593,
      "##ambah": 1594,
      "##atang": 1595,
      "##bersam": 1596,
      "liat": 1597,
      "terh": 1598,
      "antar": 1599,
      "rosan": 1600,
      "hidup": 1601,
      "##rib": 1602,
      "tetap": 1603,
      "menteri": 1604,
      "pad": 1605,
      "##amat": 1606,
      "optimisme": 1607,
      "##elum": 1608,
      "ternyata": 1609,
      "ndas": 1610,
      "##ee": 1611,
      "diaudit": 1612,
      "gitu": 1613,
      "##yono": 1614,
      "##esat": 1615,
      "luar": 1616,
      "buruh": 1617,
      "##olidasi": 1618,
      "ram": 1619,
      "nas": 1620,
      "##lok": 1621,
      "stabil": 1622,
      "sampe": 1623,
      "pembentukan": 1624,
      "dividen": 1625,
      "bur": 1626,
      "hati": 1627,
      "lihat": 1628,
      "up": 1629,
      "##hh": 1630,
      "baca": 1631,
      "sebelum": 1632,
      "pun": 1633,
      "pers": 1634,
      "fokus": 1635,
      "sal": 1636,
      "benar": 1637,
      "lokal": 1638,
      "luhut": 1639,
      "tera": 1640,
      "adanya": 1641,
      "24": 1642,
      "mulai": 1643,
      "##ondasi": 1644,
      "arah": 1645,
      "##na": 1646,
      "##osi": 1647,
      "##jalan": 1648,
      "##zz": 1649,
      "##ikasi": 1650,
      "rugi": 1651,
      "subianto": 1652,
      "##arah": 1653,
      "##awah": 1654,
      "lalu": 1655,
      "##aprabowo": 1656,
      "##bersamaprabowo": 1657,
      "din": 1658,
      "##urun": 1659,
      "mengg": 1660,
      "##kl": 1661,
      "buruhbersamaprabowo": 1662,
      "ji": 1663,
      "##rg": 1664,
      "berbagai": 1665,
      "penggerak": 1666,
      "##anggung": 1667,
      "paham": 1668,
      "kemar": 1669,
      "kh": 1670,
      "kini": 1671,
      "##uangan": 1672,
      "ndasmu": 1673,
      "gelap": 1674,
      "##25": 1675,
      "##urang": 1676,
      "has": 1677,
      "##tuju": 1678,
      "bol": 1679,
      "##ibat": 1680,
      "terjadi": 1681,
      "##akukan": 1682,
      "##mb": 1683,
      "##abah": 1684,
      "lg": 1685,
      "##embangan": 1686,
      "pand": 1687,
      "berp": 1688,
      "sup": 1689,
      "keuangan": 1690,
      "keren": 1691,
      "##uc": 1692,
      "to": 1693,
      "##egang": 1694,
      "par": 1695,
      "##kap": 1696,
      "##nah": 1697,
      "memang": 1698,
      "selalu": 1699,
      "nam": 1700,
      "war": 1701,
      "##astikan": 1702,
      "##ambil": 1703,
      "aj": 1704,
      "kat": 1705,
      "seluruh": 1706,
      "bagai": 1707,
      "##angka": 1708,
      "hadirnya": 1709,
      "##adap": 1710,
      "##cr": 1711,
      "paling": 1712,
      "udh": 1713,
      "menciptakan": 1714,
      "naik": 1715,
      "kasih": 1716,
      "nasabah": 1717,
      "ked": 1718,
      "ten": 1719,
      "##raya": 1720,
      "ja": 1721,
      "lap": 1722,
      "tel": 1723,
      "##spi": 1724,
      "##awat": 1725,
      "jab": 1726,
      "mulyono": 1727,
      "anda": 1728,
      "##kwk": 1729,
      "pengawasan": 1730,
      "##esmian": 1731,
      "##tip": 1732,
      "peresmian": 1733,
      "##kn": 1734,
      "sing": 1735,
      "##arkan": 1736,
      "##li": 1737,
      "membuka": 1738,
      "cerdas": 1739,
      "dong": 1740,
      "##mn": 1741,
      "##ribusi": 1742,
      "buka": 1743,
      "##olding": 1744,
      "##entingan": 1745,
      "jel": 1746,
      "tangan": 1747,
      "##wasraya": 1748,
      "##usan": 1749,
      "##ede": 1750,
      "##oo": 1751,
      "fin": 1752,
      "##eo": 1753,
      "jabatan": 1754,
      "butuh": 1755,
      "##ii": 1756,
      "membuat": 1757,
      "##uncul": 1758,
      "##000": 1759,
      "ah": 1760,
      "sdh": 1761,
      "be": 1762,
      "mal": 1763,
      "kepentingan": 1764,
      "sh": 1765,
      "##th": 1766,
      "coba": 1767,
      "##ila": 1768,
      "dll": 1769,
      "deh": 1770,
      "tu": 1771,
      "##jah": 1772,
      "indust": 1773,
      "sekali": 1774,
      "terhadap": 1775,
      "jiwasraya": 1776,
      "##ahal": 1777,
      "##anjang": 1778,
      "##zzer": 1779,
      "katanya": 1780,
      "rib": 1781,
      "##unggu": 1782,
      "##ko": 1783,
      "pernah": 1784,
      "kak": 1785,
      "rek": 1786,
      "##db": 1787,
      "segar": 1788,
      "##anantara": 1789,
      "main": 1790,
      "bagian": 1791,
      "##anjut": 1792,
      "konsolidasi": 1793,
      "ide": 1794,
      "hingga": 1795,
      "ses": 1796,
      "the": 1797,
      "swas": 1798,
      "kond": 1799,
      "super": 1800,
      "##alik": 1801,
      "nama": 1802,
      "##af": 1803,
      "jud": 1804,
      "industri": 1805,
      "angin": 1806,
      "ro": 1807,
      "##ony": 1808,
      "padahal": 1809,
      "sist": 1810,
      "um": 1811,
      "##abung": 1812,
      "##ulan": 1813,
      "seben": 1814,
      "##awatir": 1815,
      "sistem": 1816,
      "##get": 1817,
      "menya": 1818,
      "akhir": 1819,
      "feb": 1820,
      "##uran": 1821,
      "##san": 1822,
      "##apan": 1823,
      "bagaimana": 1824,
      "##spirasi": 1825,
      "##ulai": 1826,
      "and": 1827,
      "menarik": 1828,
      "buzzer": 1829,
      "memberikan": 1830,
      "sus": 1831,
      "##eti": 1832,
      "memastikan": 1833,
      "senin": 1834,
      "tar": 1835,
      "kre": 1836,
      "##enuh": 1837,
      "tujuan": 1838,
      "1m": 1839,
      "kokoh": 1840,
      "hasto": 1841,
      "invest": 1842,
      "diluncurkan": 1843,
      "pengurus": 1844,
      "serta": 1845,
      "##asiswa": 1846,
      "antara": 1847,
      "akun": 1848,
      "##oc": 1849,
      "diper": 1850,
      "##ajukan": 1851,
      "efektif": 1852,
      "milik": 1853,
      "muncul": 1854,
      "bert": 1855,
      "bukti": 1856,
      "mis": 1857,
      "##gal": 1858,
      "sejahtera": 1859,
      "ku": 1860,
      "##ke": 1861,
      "##ro": 1862,
      "##optim": 1863,
      "dg": 1864,
      "tni": 1865,
      "##aikan": 1866,
      "gas": 1867,
      "##untuk": 1868,
      "##rti": 1869,
      "waj": 1870,
      "##ator": 1871,
      "pajak": 1872,
      "panjang": 1873,
      "##yang": 1874,
      "inkl": 1875,
      "##arnya": 1876,
      "##awan": 1877,
      "bayar": 1878,
      "##erja": 1879,
      "bersi": 1880,
      "demo": 1881,
      "ps": 1882,
      "peny": 1883,
      "##ji": 1884,
      "1mdb": 1885,
      "ib": 1886,
      "##ratis": 1887,
      "melihat": 1888,
      "swasta": 1889,
      "temp": 1890,
      "##ef": 1891,
      "manta": 1892,
      "turun": 1893,
      "untung": 1894,
      "##man": 1895,
      "##jak": 1896,
      "##unakan": 1897,
      "tangguh": 1898,
      "##urut": 1899,
      "keber": 1900,
      "jauh": 1901,
      "##2025": 1902,
      "li": 1903,
      "##te": 1904,
      "##air": 1905,
      "memajukan": 1906,
      "maksim": 1907,
      "gub": 1908,
      "##emen": 1909,
      "##engah": 1910,
      "indo": 1911,
      "##esmikan": 1912,
      "mahasiswa": 1913,
      "el": 1914,
      "pindah": 1915,
      "iya": 1916,
      "boleh": 1917,
      "##lang": 1918,
      "##percayaan": 1919,
      "biasa": 1920,
      "##ilir": 1921,
      "##omp": 1922,
      "##umen": 1923,
      "salut": 1924,
      "eh": 1925,
      "##lis": 1926,
      "##pres": 1927,
      "##evel": 1928,
      "##str": 1929,
      "##optimalkan": 1930,
      "sw": 1931,
      "##rut": 1932,
      "saatnya": 1933,
      "##ernur": 1934,
      "##inta": 1935,
      "dimulai": 1936,
      "##bankan": 1937,
      "fondasi": 1938,
      "terbuka": 1939,
      "gubernur": 1940,
      "bes": 1941,
      "kena": 1942,
      "berhasil": 1943,
      "gk": 1944,
      "beneran": 1945,
      "berarti": 1946,
      "kecil": 1947,
      "##yk": 1948,
      "##ruari": 1949,
      "cepat": 1950,
      "ni": 1951,
      "##unjukkan": 1952,
      "inklusif": 1953,
      "hebat": 1954,
      "tumbuh": 1955,
      "februari": 1956,
      "##onakan": 1957,
      "##adar": 1958,
      "berani": 1959,
      "selama": 1960,
      "kah": 1961,
      "##ood": 1962,
      "##sia": 1963,
      "perk": 1964,
      "dipake": 1965,
      "im": 1966,
      "##ambut": 1967,
      "gua": 1968,
      "mantap": 1969,
      "kerugi": 1970,
      "res": 1971,
      "skrg": 1972,
      "gratis": 1973,
      "##ahkan": 1974,
      "##ite": 1975,
      "orang2": 1976,
      "eks": 1977,
      "##ait": 1978,
      "bergerak": 1979,
      "omon": 1980,
      "berdampak": 1981,
      "##pada": 1982,
      "##gg": 1983,
      "singap": 1984,
      "bup": 1985,
      "mu": 1986,
      "mudah": 1987,
      "bupati": 1988,
      "duitnya": 1989,
      "bos": 1990,
      "##alis": 1991,
      "pengal": 1992,
      "waktu": 1993,
      "##di": 1994,
      "intern": 1995,
      "motor": 1996,
      "keluarga": 1997,
      "nah": 1998,
      "##teg": 1999,
      "14": 2000,
      "gem": 2001,
      "hadapi": 2002,
      "##abri": 2003,
      "##upa": 2004,
      "##embatan": 2005,
      "##esl": 2006,
      "kepercayaan": 2007,
      "harga": 2008,
      "lama": 2009,
      "##erapa": 2010,
      "bahas": 2011,
      "bawah": 2012,
      "##apun": 2013,
      "pera": 2014,
      "harusnya": 2015,
      "##masuk": 2016,
      "ist": 2017,
      "keuntung": 2018,
      "ngga": 2019,
      "##tika": 2020,
      "pengalihan": 2021,
      "##oner": 2022,
      "swf": 2023,
      "##han": 2024,
      "bahkan": 2025,
      "##crp": 2026,
      "tib": 2027,
      "##investasi": 2028,
      "kemarin": 2029,
      "gede": 2030,
      "level": 2031,
      "2029": 2032,
      "pan": 2033,
      "##ye": 2034,
      "takut": 2035,
      "tiap": 2036,
      "la": 2037,
      "##isme": 2038,
      "datang": 2039,
      "struktur": 2040,
      "ruu": 2041,
      "##io": 2042,
      "##ersi": 2043,
      "dikorup": 2044,
      "kerugian": 2045,
      "habis": 2046,
      "sambut": 2047,
      "polri": 2048,
      "##gan": 2049,
      "perbankan": 2050,
      "##idikan": 2051,
      "termasuk": 2052,
      "##tul": 2053,
      "maka": 2054,
      "sepenuh": 2055,
      "tambah": 2056,
      "##una": 2057,
      "##abungan": 2058,
      "oc": 2059,
      "##iliki": 2060,
      "##eksi": 2061,
      "mending": 2062,
      "berharap": 2063,
      "sedang": 2064,
      "fak": 2065,
      "##ba": 2066,
      "##alitas": 2067,
      "##utup": 2068,
      "kira": 2069,
      "##if": 2070,
      "##pun": 2071,
      "##jung": 2072,
      "asabri": 2073,
      "##eda": 2074,
      "bub": 2075,
      "jak": 2076,
      "ka": 2077,
      "##aut": 2078,
      "kamu": 2079,
      "semen": 2080,
      "hadirkan": 2081,
      "##eslani": 2082,
      "10": 2083,
      "bs": 2084,
      "of": 2085,
      "##tak": 2086,
      "dic": 2087,
      "just": 2088,
      "mengoptimalkan": 2089,
      "pakai": 2090,
      "kepala": 2091,
      "tt": 2092,
      "##ry": 2093,
      "wkwk": 2094,
      "instr": 2095,
      "geb": 2096,
      "##orang": 2097,
      "penj": 2098,
      "##danantara": 2099,
      "dij": 2100,
      "##encana": 2101,
      "occrp": 2102,
      "meg": 2103,
      "seri": 2104,
      "##kk": 2105,
      "##sh": 2106,
      "##bah": 2107,
      "##antu": 2108,
      "kali": 2109,
      "menghadapi": 2110,
      "produktif": 2111,
      "visioner": 2112,
      "bri": 2113,
      "jangka": 2114,
      "ex": 2115,
      "gen": 2116,
      "##rakan": 2117,
      "trus": 2118,
      "jembatan": 2119,
      "mamp": 2120,
      "##ma": 2121,
      "##aruh": 2122,
      "merah": 2123,
      "bentuk": 2124,
      "instrumen": 2125,
      "kurang": 2126,
      "selamat": 2127,
      "bangkit": 2128,
      "dijadi": 2129,
      "pendidikan": 2130,
      "pesat": 2131,
      "##res": 2132,
      "##ansi": 2133,
      "##ord": 2134,
      "##asar": 2135,
      "##arat": 2136,
      "pemerintahan": 2137,
      "100": 2138,
      "##ihak": 2139,
      "pakar": 2140,
      "rev": 2141,
      "kreatif": 2142,
      "keuntungan": 2143,
      "fund": 2144,
      "##uru": 2145,
      "mes": 2146,
      "katalis": 2147,
      "terkait": 2148,
      "bp": 2149,
      "sbg": 2150,
      "##asin": 2151,
      "begitu": 2152,
      "istana": 2153,
      "mili": 2154,
      "##2an": 2155,
      "##port": 2156,
      "menurut": 2157,
      "##awal": 2158,
      "##utif": 2159,
      "terj": 2160,
      "dlm": 2161,
      "##anan": 2162,
      "amb": 2163,
      "hilir": 2164,
      "danantarauntuk": 2165,
      "posisi": 2166,
      "bb": 2167,
      "es": 2168,
      "jgn": 2169,
      "ra": 2170,
      "disi": 2171,
      "##oritas": 2172,
      "tinggal": 2173,
      "justru": 2174,
      "holding": 2175,
      "pul": 2176,
      "##km": 2177,
      "##ingk": 2178,
      "jadikan": 2179,
      "minta": 2180,
      "hut": 2181,
      "mew": 2182,
      "kepada": 2183,
      "gebrakan": 2184,
      "isinya": 2185,
      "kamp": 2186,
      "nilai": 2187,
      "banc": 2188,
      "melangkah": 2189,
      "laut": 2190,
      "yo": 2191,
      "##ekan": 2192,
      "roeslani": 2193,
      "pri": 2194,
      "sehat": 2195,
      "##sb": 2196,
      "##ahah": 2197,
      "##upakan": 2198,
      "##ubah": 2199,
      "diresmikan": 2200,
      "abis": 2201,
      "ciptakan": 2202,
      "tra": 2203,
      "##set": 2204,
      "##usnya": 2205,
      "digitalisasi": 2206,
      "##re": 2207,
      "opl": 2208,
      "ambil": 2209,
      "utang": 2210,
      "setuju": 2211,
      "tahu": 2212,
      "target": 2213,
      "dev": 2214,
      "kor": 2215,
      "no": 2216,
      "##ly": 2217,
      "blair": 2218,
      "namanya": 2219,
      "miliar": 2220,
      "diri": 2221,
      "terbaik": 2222,
      "soalnya": 2223,
      "bca": 2224,
      "pet": 2225,
      "##agar": 2226,
      "ur": 2227,
      "##ank": 2228,
      "pelaku": 2229,
      "maksimal": 2230,
      "sementara": 2231,
      "bancakan": 2232,
      "##imb": 2233,
      "kebal": 2234,
      "beberapa": 2235,
      "bersih": 2236,
      "##aing": 2237,
      "##2nya": 2238,
      "begini": 2239,
      "dinam": 2240,
      "mom": 2241,
      "pd": 2242,
      "##co": 2243,
      "balik": 2244,
      "gt": 2245,
      "##empatan": 2246,
      "besok": 2247,
      "19": 2248,
      "rum": 2249,
      "##prabowo": 2250,
      "akhirnya": 2251,
      "##aks": 2252,
      "##egas": 2253,
      "ngurus": 2254,
      "doang": 2255,
      "wkwkwk": 2256,
      "kondusif": 2257,
      "cont": 2258,
      "sat": 2259,
      "##ras": 2260,
      "perkuat": 2261,
      "memiliki": 2262,
      "##idang": 2263,
      "mati": 2264,
      "##ere": 2265,
      "terp": 2266,
      "simp": 2267,
      "malay": 2268,
      "akunta": 2269,
      "##bl": 2270,
      "##aru": 2271,
      "##engkap": 2272,
      "##omong": 2273,
      "terc": 2274,
      "##alih": 2275,
      "tiba": 2276,
      "dikorupsi": 2277,
      "hilirisasi": 2278,
      "tabungan": 2279,
      "##uy": 2280,
      "##yi": 2281,
      "bersaing": 2282,
      "berg": 2283,
      "sini": 2284,
      "sejak": 2285,
      "pilar": 2286,
      "##arta": 2287,
      "berl": 2288,
      "maj": 2289,
      "ceo": 2290,
      "tata": 2291,
      "##sol": 2292,
      "mata": 2293,
      "menjadikan": 2294,
      "luas": 2295,
      "gara": 2296,
      "on": 2297,
      "##tiv": 2298,
      "lh": 2299,
      "diawasi": 2300,
      "rez": 2301,
      "warga": 2302,
      "tony": 2303,
      "##iah": 2304,
      "##olah": 2305,
      "##ilih": 2306,
      "##masalah": 2307,
      "pt": 2308,
      "tet": 2309,
      "##der": 2310,
      "pandu": 2311,
      "##tis": 2312,
      "tik": 2313,
      "top": 2314,
      "##ss": 2315,
      "ket": 2316,
      "ketika": 2317,
      "nger": 2318,
      "kompeti": 2319,
      "eri": 2320,
      "tingkat": 2321,
      "##adang": 2322,
      "pengembangan": 2323,
      "pu": 2324,
      "penas": 2325,
      "ngomong": 2326,
      "uangnya": 2327,
      "titip": 2328,
      "malaysia": 2329,
      "pihak": 2330,
      "##anfaat": 2331,
      "##taan": 2332,
      "##angkat": 2333,
      "##ima": 2334,
      "lainnya": 2335,
      "konsep": 2336,
      "bo": 2337,
      "jamin": 2338,
      "dibuat": 2339,
      "ingin": 2340,
      "cap": 2341,
      "##entu": 2342,
      "anjlok": 2343,
      "dipakai": 2344,
      "cuk": 2345,
      "dek": 2346,
      "##untu": 2347,
      "singapura": 2348,
      "bubar": 2349,
      "danantarauntukindonesia": 2350,
      "bod": 2351,
      "daripada": 2352,
      "##umpul": 2353,
      "cari": 2354,
      "##uai": 2355,
      "##uanya": 2356,
      "##ungsi": 2357,
      "##okoh": 2358,
      "##angkap": 2359,
      "sekadar": 2360,
      "terarah": 2361,
      "##ran": 2362,
      "##enya": 2363,
      "kement": 2364,
      "plat": 2365,
      "keter": 2366,
      "##ongan": 2367,
      "ngeri": 2368,
      "##ohir": 2369,
      "##arapkan": 2370,
      "kap": 2371,
      "lupa": 2372,
      "##engg": 2373,
      "mampu": 2374,
      "we": 2375,
      "##ka": 2376,
      "##resi": 2377,
      "makanya": 2378,
      "bangga": 2379,
      "kesempatan": 2380,
      "kn": 2381,
      "rezim": 2382,
      "adili": 2383,
      "penc": 2384,
      "pendek": 2385,
      "erick": 2386,
      "##anfaatkan": 2387,
      "atur": 2388,
      "##ben": 2389,
      "bersin": 2390,
      "##tusi": 2391,
      "tersebut": 2392,
      "mon": 2393,
      "ujung": 2394,
      "##ch": 2395,
      "##agian": 2396,
      "##impi": 2397,
      "bebas": 2398,
      "car": 2399,
      "##esin": 2400,
      "mencapai": 2401,
      "internasional": 2402,
      "air": 2403,
      "gila": 2404,
      "##uah": 2405,
      "bangkrut": 2406,
      "dap": 2407,
      "meningkat": 2408,
      "contoh": 2409,
      "mir": 2410,
      "dilakukan": 2411,
      "sak": 2412,
      "##unikasi": 2413,
      "berjalan": 2414,
      "keti": 2415,
      "presidenprabowo": 2416,
      "terlalu": 2417,
      "terbesar": 2418,
      "##ancur": 2419,
      "kontribusi": 2420,
      "rep": 2421,
      "rup": 2422,
      "gam": 2423,
      "pagar": 2424,
      "##cah": 2425,
      "##stem": 2426,
      "tepatsol": 2427,
      "gar": 2428,
      "dananya": 2429,
      "##asib": 2430,
      "merupakan": 2431,
      "lb": 2432,
      "finalis": 2433,
      "keta": 2434,
      "trust": 2435,
      "bakalan": 2436,
      "janj": 2437,
      "##emas": 2438,
      "##asanya": 2439,
      "lapangan": 2440,
      "mikir": 2441,
      "##ect": 2442,
      "spt": 2443,
      "##utifindonesia": 2444,
      "tepatsolutifindonesia": 2445,
      "lin": 2446,
      "##dul": 2447,
      "##edia": 2448,
      "cor": 2449,
      "##iti": 2450,
      "##rik": 2451,
      "bersatu": 2452,
      "selain": 2453,
      "deviden": 2454,
      "dasar": 2455,
      "##pon": 2456,
      "tanah": 2457,
      "diharapkan": 2458,
      "bek": 2459,
      "##itra": 2460,
      "khawatir": 2461,
      "ekon": 2462,
      "##ubung": 2463,
      "jakarta": 2464,
      "serius": 2465,
      "kompetitif": 2466,
      "nan": 2467,
      "##sk": 2468,
      "##unch": 2469,
      "pastikan": 2470,
      "segala": 2471,
      "blm": 2472,
      "artinya": 2473,
      "beliau": 2474,
      "rame": 2475,
      "perkembangan": 2476,
      "hilang": 2477,
      "##asama": 2478,
      "##oll": 2479,
      "##erakan": 2480,
      "umkm": 2481,
      "bidang": 2482,
      "ganti": 2483,
      "##ehat": 2484,
      "mempercepat": 2485,
      "dinamis": 2486,
      "cukup": 2487,
      "##oy": 2488,
      "##dal": 2489,
      "terd": 2490,
      "##uda": 2491,
      "eng": 2492,
      "rumah": 2493,
      "ekonom": 2494,
      "tam": 2495,
      "wowo": 2496,
      "##ku": 2497,
      "##kar": 2498,
      "kej": 2499,
      "olig": 2500,
      "alat": 2501,
      "supaya": 2502,
      "kag": 2503,
      "hutang": 2504,
      "hr": 2505,
      "bahasa": 2506,
      "da": 2507,
      "##uf": 2508,
      "siang": 2509,
      "##utusan": 2510,
      "pilpres": 2511,
      "mewujudkan": 2512,
      "dua": 2513,
      "telah": 2514,
      "##gas": 2515,
      "##kont": 2516,
      "##agu": 2517,
      "dibentuk": 2518,
      "cuc": 2519,
      "lab": 2520,
      "##dak": 2521,
      "negatif": 2522,
      "##tanya": 2523,
      "##inet": 2524,
      "ama": 2525,
      "sebelumnya": 2526,
      "sesuai": 2527,
      "##hasil": 2528,
      "susah": 2529,
      "oligark": 2530,
      "juju": 2531,
      "##ernya": 2532,
      "tul": 2533,
      "maling": 2534,
      "##uhan": 2535,
      "mac": 2536,
      "kemb": 2537,
      "info": 2538,
      "upaya": 2539,
      "tengah": 2540,
      "bayang": 2541,
      "meluncurkan": 2542,
      "ttg": 2543,
      "mimpi": 2544,
      "wh": 2545,
      "tempat": 2546,
      "dapet": 2547,
      "##ily": 2548,
      "kabinet": 2549,
      "nom": 2550,
      "pimpin": 2551,
      "##pt": 2552,
      "##ex": 2553,
      "##ingg": 2554,
      "sebuah": 2555,
      "kancah": 2556,
      "lahir": 2557,
      "jujur": 2558,
      "loh": 2559,
      "tw": 2560,
      "##tion": 2561,
      "majukan": 2562,
      "titipan": 2563,
      "niat": 2564,
      "##uri": 2565,
      "support": 2566,
      "gmn": 2567,
      "lingk": 2568,
      "semuanya": 2569,
      "tolol": 2570,
      "dijadikan": 2571,
      "##ret": 2572,
      "real": 2573,
      "des": 2574,
      "lanjut": 2575,
      "pat": 2576,
      "##ign": 2577,
      "##lo": 2578,
      "pemimpin": 2579,
      "karna": 2580,
      "liga": 2581,
      "mr": 2582,
      "ph": 2583,
      "pus": 2584,
      "pagi": 2585,
      "##ve": 2586,
      "membantu": 2587,
      "masi": 2588,
      "##angga": 2589,
      "berin": 2590,
      "##okasi": 2591,
      "dimana": 2592,
      "pp": 2593,
      "##lan": 2594,
      "##asuk": 2595,
      "betul": 2596,
      "beda": 2597,
      "bern": 2598,
      "alasan": 2599,
      "##acu": 2600,
      "tolak": 2601,
      "total": 2602,
      "prioritas": 2603,
      "tunjukkan": 2604,
      "wal": 2605,
      "##tt": 2606,
      "melesat": 2607,
      "usah": 2608,
      "parta": 2609,
      "sebenarnya": 2610,
      "bt": 2611,
      "kampan": 2612,
      "allah": 2613,
      "##anjikan": 2614,
      "jelasin": 2615,
      "launch": 2616,
      "janji": 2617,
      "##yah": 2618,
      "was": 2619,
      "inspirasi": 2620,
      "perb": 2621,
      "anjing": 2622,
      "ekosi": 2623,
      "oligarki": 2624,
      "bulan": 2625,
      "kelas": 2626,
      "oke": 2627,
      "##ny": 2628,
      "##men": 2629,
      "##ejak": 2630,
      "ekosistem": 2631,
      "vid": 2632,
      "integ": 2633,
      "dikasih": 2634,
      "rec": 2635,
      "peramp": 2636,
      "tetep": 2637,
      "pendekatan": 2638,
      "km": 2639,
      "##ral": 2640,
      "##unan": 2641,
      "##omb": 2642,
      "go": 2643,
      "##jokowi": 2644,
      "##ulit": 2645,
      "aneh": 2646,
      "##ingkatan": 2647,
      "iss": 2648,
      "leg": 2649,
      "yaa": 2650,
      "##ajar": 2651,
      "##ts": 2652,
      "percepat": 2653,
      "keputusan": 2654,
      "pln": 2655,
      "kedepan": 2656,
      "capai": 2657,
      "sov": 2658,
      "##dang": 2659,
      "##enang": 2660,
      "##erik": 2661,
      "ngelola": 2662,
      "kabur": 2663,
      "luncurkan": 2664,
      "##oran": 2665,
      "ngel": 2666,
      "##saan": 2667,
      "tsb": 2668,
      "##isan": 2669,
      "kin": 2670,
      "keg": 2671,
      "land": 2672,
      "sy": 2673,
      "##rr": 2674,
      "##ews": 2675,
      "##otensi": 2676,
      "penasehat": 2677,
      "##50": 2678,
      "##ate": 2679,
      "##ess": 2680,
      "rp1": 2681,
      "kri": 2682,
      "ponakan": 2683,
      "##rir": 2684,
      "##mm": 2685,
      "menjaga": 2686,
      "##uasaan": 2687,
      "rupiah": 2688,
      "rencana": 2689,
      "##sip": 2690,
      "menjanjikan": 2691,
      "sehar": 2692,
      "##hasilan": 2693,
      "me": 2694,
      "perjalan": 2695,
      "emg": 2696,
      "##engkapnya": 2697,
      "mar": 2698,
      "ntar": 2699,
      "sah": 2700,
      "terima": 2701,
      "##erima": 2702,
      "bermasalah": 2703,
      "indep": 2704,
      "##ulasi": 2705,
      "##atas": 2706,
      "modern": 2707,
      "hrs": 2708,
      "hancur": 2709,
      "aksi": 2710,
      "##bilitas": 2711,
      "mirip": 2712,
      "kampanye": 2713,
      "##kah": 2714,
      "##eks": 2715,
      "memanfaatkan": 2716,
      "asal": 2717,
      "doa": 2718,
      "tolong": 2719,
      "dipercaya": 2720,
      "pemain": 2721,
      "oplosan": 2722,
      "##egaskan": 2723,
      "##ereign": 2724,
      "guy": 2725,
      "##ion": 2726,
      "##kom": 2727,
      "##lic": 2728,
      "##kandal": 2729,
      "sign": 2730,
      "sebesar": 2731,
      "merugi": 2732,
      "##tarik": 2733,
      "##jahat": 2734,
      "misal": 2735,
      "##ritas": 2736,
      "ins": 2737,
      "karya": 2738,
      "bahan": 2739,
      "phk": 2740,
      "sovereign": 2741,
      "perjalanan": 2742,
      "jejak": 2743,
      "##pen": 2744,
      "##tes": 2745,
      "##ine": 2746,
      "##erian": 2747,
      "pengen": 2748,
      "##tambah": 2749,
      "orangorang": 2750,
      "terkorup": 2751,
      "risi": 2752,
      "wah": 2753,
      "##jad": 2754,
      "biaya": 2755,
      "penjelas": 2756,
      "##oni": 2757,
      "##esang": 2758,
      "berpotensi": 2759,
      "##kontribusi": 2760,
      "300": 2761,
      "diisi": 2762,
      "diambil": 2763,
      "berkontribusi": 2764,
      "##ilah": 2765,
      "pengg": 2766,
      "maaf": 2767,
      "ibu": 2768,
      "bud": 2769,
      "skandal": 2770,
      "yah": 2771,
      "##alang": 2772,
      "##umlah": 2773,
      "peningkatan": 2774,
      "kemana": 2775,
      "tokoh": 2776,
      "##atuh": 2777,
      "terob": 2778,
      "##usak": 2779,
      "##inggi": 2780,
      "##ity": 2781,
      "ormas": 2782,
      "bukannya": 2783,
      "berapa": 2784,
      "##ancar": 2785,
      "buruk": 2786,
      "##gantung": 2787,
      "gaji": 2788,
      "digunakan": 2789,
      "disuruh": 2790,
      "##igh": 2791,
      "organ": 2792,
      "##ibatkan": 2793,
      "kaesang": 2794,
      "ta": 2795,
      "tanya": 2796,
      "##pd": 2797,
      "##ening": 2798,
      "##ingat": 2799,
      "amat": 2800,
      "generasi": 2801,
      "launching": 2802,
      "pikir": 2803,
      "##antas": 2804,
      "ina": 2805,
      "semp": 2806,
      "model": 2807,
      "manaj": 2808,
      "tetapi": 2809,
      "landasan": 2810,
      "reg": 2811,
      "sd": 2812,
      "##hawatir": 2813,
      "##lh": 2814,
      "##alaman": 2815,
      "##asihat": 2816,
      "suara": 2817,
      "buktikan": 2818,
      "pusat": 2819,
      "##ey": 2820,
      "##alth": 2821,
      "pengawasnya": 2822,
      "pilih": 2823,
      "jawaban": 2824,
      "namun": 2825,
      "judol": 2826,
      "mark": 2827,
      "prab": 2828,
      "ketah": 2829,
      "##adirkan": 2830,
      "mega": 2831,
      "signif": 2832,
      "suka": 2833,
      "##bu": 2834,
      "situ": 2835,
      "thohir": 2836,
      "kementerian": 2837,
      "issue": 2838,
      "signifikan": 2839,
      "cal": 2840,
      "##inasi": 2841,
      "##bangkan": 2842,
      "pertal": 2843,
      "all": 2844,
      "ris": 2845,
      "resi": 2846,
      "##kut": 2847,
      "##sar": 2848,
      "##omunikasi": 2849,
      "pengh": 2850,
      "kemungkin": 2851,
      "minim": 2852,
      "##utuhan": 2853,
      "ngerti": 2854,
      "organisasi": 2855,
      "pegang": 2856,
      "##peran": 2857,
      "kayaknya": 2858,
      "kembali": 2859,
      "terobosan": 2860,
      "sor": 2861,
      "tas": 2862,
      "dorongan": 2863,
      "##undang": 2864,
      "judi": 2865,
      "##jadulu": 2866,
      "bus": 2867,
      "jo": 2868,
      "kian": 2869,
      "nasib": 2870,
      "##ell": 2871,
      "maks": 2872,
      "##usia": 2873,
      "tanggung": 2874,
      "dekat": 2875,
      "nantinya": 2876,
      "nunggu": 2877,
      "nutup": 2878,
      "##pek": 2879,
      "##ant": 2880,
      "##egara": 2881,
      "berperan": 2882,
      "##ekomunikasi": 2883,
      "pendorong": 2884,
      "sejarah": 2885,
      "ingat": 2886,
      "242": 2887,
      "tentu": 2888,
      "##wujud": 2889,
      "##int": 2890,
      "terang": 2891,
      "##bangan": 2892,
      "pemil": 2893,
      "penasihat": 2894,
      "kekuasaan": 2895,
      "telekomunikasi": 2896,
      "aturan": 2897,
      "tunggu": 2898,
      "##ris": 2899,
      "##ps": 2900,
      "##uas": 2901,
      "##sek": 2902,
      "berj": 2903,
      "##uncak": 2904,
      "kerj": 2905,
      "cuman": 2906,
      "keberhasilan": 2907,
      "isi": 2908,
      "kyk": 2909,
      "seng": 2910,
      "via": 2911,
      "##atur": 2912,
      "##apain": 2913,
      "##tup": 2914,
      "kebutuhan": 2915,
      "kesukses": 2916,
      "bni": 2917,
      "gov": 2918,
      "ped": 2919,
      "##bi": 2920,
      "##est": 2921,
      "##olak": 2922,
      "memak": 2923,
      "anc": 2924,
      "selengkapnya": 2925,
      "##erakhir": 2926,
      "bahl": 2927,
      "laba": 2928,
      "gel": 2929,
      "na": 2930,
      "penguasa": 2931,
      "sebagian": 2932,
      "##iral": 2933,
      "bab": 2934,
      "food": 2935,
      "ladang": 2936,
      "tuk": 2937,
      "##ota": 2938,
      "##zi": 2939,
      "##ement": 2940,
      "##olusi": 2941,
      "##itar": 2942,
      "simb": 2943,
      "melakukan": 2944,
      "keponakan": 2945,
      "hasilnya": 2946,
      "telkom": 2947,
      "daerah": 2948,
      "kesuksesan": 2949,
      "good": 2950,
      "kapan": 2951,
      "versi": 2952,
      "##hati": 2953,
      "##cak": 2954,
      "##uatu": 2955,
      "peman": 2956,
      "##udian": 2957,
      "##abisa": 2958,
      "jelek": 2959,
      "##jahrir": 2960,
      "sebenernya": 2961,
      "petinggi": 2962,
      "wealth": 2963,
      "indepen": 2964,
      "kemungkinan": 2965,
      "msh": 2966,
      "ala": 2967,
      "berikut": 2968,
      "indonesiagelap2025": 2969,
      "anjir": 2970,
      "bro": 2971,
      "##tujuan": 2972,
      "wajar": 2973,
      "gerakan": 2974,
      "##ug": 2975,
      "##titas": 2976,
      "##ajaran": 2977,
      "##tment": 2978,
      "independen": 2979,
      "cek": 2980,
      "data": 2981,
      "lancar": 2982,
      "puncak": 2983,
      "sana": 2984,
      "##be": 2985,
      "belak": 2986,
      "ribuan": 2987,
      "misi": 2988,
      "##aja": 2989,
      "##erita": 2990,
      "baj": 2991,
      "2024": 2992,
      "partai": 2993,
      "simbol": 2994,
      "##buk": 2995,
      "##ela": 2996,
      "##isis": 2997,
      "pertanya": 2998,
      "##benar": 2999
    }
  }
}