[PAD]
[UNK]
[CLS]
[SEP]
[MASK]
0
1
2
3
4
5
6
7
8
9
a
b
c
d
e
f
g
h
i
j
k
l
m
n
o
p
q
r
s
t
u
v
w
x
y
z
²
ð
ı
α
ι
μ
ν
τ
χ
ω
ا
ب
ت
ج
ح
د
ر
س
ش
ض
ط
ع
ك
ل
م
ن
ه
و
ي
ค
ง
จ
ช
ซ
ณ
ด
ต
ท
ธ
น
บ
ป
ผ
พ
ม
ย
ร
ล
ว
ห
อ
ะ
า
เ
แ
ใ
ไ
ᄀ
ᄂ
ᄃ
ᄅ
ᄆ
ᄇ
ᄉ
ᄋ
ᄌ
ᄎ
ᄏ
ᄐ
ᄑ
ᄒ
ᅠ
ᅡ
ᅢ
ᅥ
ᅦ
ᅧ
ᅩ
ᅪ
ᅮ
ᅱ
ᅳ
ᅴ
ᅵ
ᆨ
ᆫ
ᆭ
ᆯ
ᆷ
ᆺ
ᆼ
ᆾ
ᇀ
ᴬ
ᴰ
ᴺ
ᴿ
ᵀ
⅓
シ
ㅋ
ㆁ
利
明
機
益
里
関
𓃵
𝐀
𝐁
𝐂
𝐃
𝐄
𝐅
𝐆
𝐈
𝐉
𝐊
𝐋
𝐌
𝐍
𝐎
𝐏
𝐑
𝐒
𝐓
𝐚
𝐛
𝐜
𝐝
𝐞
𝐠
𝐡
𝐢
𝐤
𝐥
𝐦
𝐧
𝐨
𝐫
𝐬
𝐭
𝐮
𝑎
𝑒
𝑔
𝑘
𝑙
𝑚
𝑛
𝑜
𝑝
𝑞
𝑟
𝑠
𝑡
𝑢
𝑦
𝒂
𝒄
𝒅
𝒆
𝒈
𝒉
𝒊
𝒋
𝒍
𝒏
𝒐
𝒗
𝒚
𝕏
𝗔
𝗗
𝗮
𝗲
𝗶
𝗺
𝗻
𝗽
𝗿
𝘀
𝘁
𝘂
𝘉
𝘐
𝘓
𝘔
𝘛
𝘢
𝘣
𝘥
𝘦
𝘨
𝘩
𝘪
𝘬
𝘭
𝘮
𝘯
𝘰
𝘱
𝘴
𝘵
𝘶
𝘺
𝘼
𝘽
𝙀
𝙁
𝙂
𝙄
𝙆
𝙇
𝙈
𝙉
𝙊
𝙋
𝙎
𝙏
𝙖
𝙚
𝙞
𝙠
𝙡
𝙢
𝙣
𝙥
𝙨
𝙪
𝙰
𝙳
𝙵
𝙸
𝙺
𝙻
𝙽
𝚁
𝚃
𝚈
𝚊
𝚋
𝚍
𝚎
𝚐
𝚗
𝚘
𝚙
𝚛
𝚝
𝚞
##i
##k
##r
##n
##p
##e
##t
##a
##m
##u
##g
##h
##s
##w
##f
##o
##d
##c
##b
##y
##l
##v
##z
##j
##2
##6
##0
##1
##7
##²
##x
##5
##4
##𝘁
##𝘂
##3
##9
##8
##𝑎
##𝑙
##𝑢
##𝑝
##𝑛
##q
##𝐊
##𝐍
##𝘢
##𝘬
##𝘯
##𝘺
##𝗮
##𝗻
##𝗿
##ل
##ه
##ا
##ت
##ح
##د
##ม
##อ
##น
##ไ
##ง
##จ
##ะ
##ใ
##ค
##ร
##ห
##ล
##𝘪
##シ
##ᅢ
##ᆺ
##ᄉ
##ᅡ
##ᆯ
##ᄀ
##ᇀ
##ᄋ
##ᅳ
##ᆫ
##ᄅ
##ᆼ
##ᄃ
##ᅮ
##ᅵ
##ᅩ
##ᅧ
##ᆷ
##ᄑ
##𝐢
##𝐥
##𝐮
##𝐧
##𝐜
##𝐫
##𝐤
##𝐚
##𝙁
##𝙪
##𝙠
##𝙖
##𝙣
##𝘰
##𝘵
##𝘭
##𝐞
##𝐬
##𝙡
##𝐨
##𝐦
##𝐑
##𝐄
##𝐀
##𝐈
##𝐆
##𝒂
##𝒊
##𝒍
##𝒚
##ป
##ด
##บ
##า
##ว
##ท
##ณ
##ช
##ᅦ
##ᄌ
##ᅥ
##ᅴ
##ᄇ
##ı
##𝘩
##𝑔
##𝑒
##𝑟
##𝑠
##𝑜
##𝘶
##𝐡
##𝐭
##𝗲
##𝘀
##𝗺
##พ
##ธ
##แ
##ซ
##ต
##𝘴
##𝘦
##𝘥
##μ
##ι
##ν
##τ
##α
##𝐃
##𝐒
##𝚊
##𝚗
##𝚐
##𝙚
##𝙨
##𝙞
##𝙢
##𝘮
##𝙇
##𝙊
##𝘽
##𝘼
##𝙄
##𝙎
##𝙏
##و
##م
##ب
##ي
##ن
##ย
##𝑡
##𝘱
##𝗽
##𝒐
##𝒏
##𝒗
##𝒆
##𝒈
##𝒄
##𝒉
##𝙈
##𝙆
##ض
##ج
##ع
##ط
##ر
##𝘣
##𝘨
##𓃵
##𝐌
##ᅠ
##𝙋
##ㅋ
##ผ
##𝙸
##𝙽
##𝙺
##ᄒ
##ᅪ
##ᆾ
##ᄂ
##ᄆ
##س
##𝐓
##ᄎ
##ᄏ
##ᆨ
##ᆭ
##𝚎
##𝚛
##ش
##ك
##𝚘
##𝚞
##𝚙
##𝙰
##𝙵
##𝚃
##𝚁
##𝚍
##ᴬ
##ᴺ
##ᵀ
##ᴿ
##𝙂
##ᅱ
##𝐠
##𝐛
##𝑦
##ω
##ㆁ
##𝐎
##𝐏
##an
##ta
##ra
dan
##si
##er
##anta
##antara
danantara
##en
##ang
##ya
##on
##in
##al
##at
in
##ar
##un
##es
##ah
##ak
##em
di
##uk
##or
##as
##el
##eng
##ves
##eg
##am
##tasi
##vestasi
##kan
##ad
##om
##eb
##omi
##kon
ter
##is
##ap
##aya
##esi
##asi
##um
##konomi
##ti
##eri
##bang
##sin
ekonomi
ber
##ol
ke
##ag
yang
##nya
##adi
##tu
##ih
per
##bangun
ind
##onesi
##us
##per
##por
##ik
##egeri
indonesi
men
##osin
danantarapor
danantaraporosin
danantaraporosinvestasi
##ara
##ek
##ing
##bangunn
danantarabangunn
danantarabangunnegeri
indonesia
##ung
investasi
deng
##caya
dengan
##uat
##tuk
##il
##ita
un
##era
##ari
##et
##percaya
ini
##ju
leb
##ep
terpercaya
##ur
ad
lebih
untuk
##uh
jadi
##ai
pem
yg
pr
mem
##ok
##au
##ab
mas
##umn
##aw
bumn
##up
bis
##anya
peng
##ga
##ul
dari
##ama
##id
##it
##agi
bisa
sem
an
kita
##ow
se
##isi
##ir
##ja
##ut
neg
##gi
meng
buat
ada
ap
si
itu
negara
##elol
pen
##tah
tr
kal
##angk
as
##elola
bar
##alah
##onal
##tor
##kat
##im
##erin
##ensi
mak
##alam
##ong
ng
ef
##erintah
pemerintah
pro
##pi
##orup
baru
##ud
##epan
##ukung
sek
##asional
##angan
##ana
dalam
##ub
ban
##ri
seb
##owo
##rab
##umb
##eh
aset
##ukan
nasional
depan
korup
ga
efisi
##aran
##rabowo
##ati
ba
akan
masa
bang
##ans
##amp
po
##tan
op
ma
##api
##ew
##yat
##ua
rak
aja
memb
trans
##rat
am
or
##tim
ya
bers
mel
siap
kem
##tif
rakyat
bpi
st
dukung
##uju
berk
##ob
##tam
##angkah
nya
##akan
##umbuh
sa
##ov
##den
##ergi
pert
prabowo
bagi
##unc
##adir
##ada
##esar
apa
efisiensi
ju
##usi
##agai
langkah
##esiden
##ian
pak
menj
ak
##ed
makin
mau
gak
##umbuhan
pertumbuhan
presiden
##ikin
dik
man
##st
bank
optim
kek
##od
##ata
tapi
pel
##dah
semua
pas
##epat
bersama
##rateg
juga
strateg
besar
##sa
sama
tid
##ej
##asih
bikin
##alu
##awa
mer
tidak
##os
mend
##atan
lagi
sin
keb
pengelola
sel
inov
##anju
kon
bi
##erak
dana
korupsi
ata
baik
ol
bukan
har
kalau
orang
ben
hadir
##tur
dib
##alan
##ekonomi
##oh
##ib
##ia
uang
##ent
adalah
bak
kar
kalo
kes
##ain
##sing
##aj
du
##unya
tan
##00
ik
ker
##orm
##ena
bel
pertam
##kw
##anyak
sebagai
##arap
pada
bah
##angat
kep
##anjutan
sinergi
oleh
##amb
##ip
ang
kan
kuat
asing
sol
##form
banyak
udah
duit
##erah
##elap
##ewat
dip
en
menjadi
##ingkat
em
##udah
lewat
##tik
maju
sektor
al
berkel
##and
##paran
inovasi
posi
##okow
bakal
##orong
transparan
##angg
##bangunan
pembangunan
berkelanjutan
##formasi
##lah
##rakat
masya
##rasi
masyarakat
dig
dem
terus
##aha
##atif
##ot
##inya
inves
lu
harus
so
##itas
##awas
atau
##ses
##okowi
kr
##op
##gn
##tar
##asil
##ini
##uka
##aham
##akin
##annya
beri
##isasi
20
amp
pengawas
sen
##ahan
##emb
##ruk
karena
daya
gl
##obal
##elas
strategis
global
##tera
masuk
##ina
##eka
##esm
##asa
transformasi
##pk
##ahtera
##fa
optimal
positif
pol
##ili
dis
masih
##uncur
##ting
jokowi
##ruktur
##dir
pengelolaan
terb
##pa
##utu
##ikan
##cepat
kl
##ital
inf
punya
pot
##unia
##ebat
mul
##ukum
##aju
##ind
##bg
mereka
sudah
mod
sih
##anti
##atu
##ter
harap
is
##ram
menuju
##pr
##agelap
##to
dukungan
indonesiagelap
##apat
##ukses
bawa
##aga
##uruh
percaya
potensi
hukum
ut
dunia
##kin
angg
##arang
re
##da
kaya
ag
memper
dil
##wa
##adan
##ulu
th
saya
cum
kel
prog
##uang
##diri
##eta
seper
berkat
dim
##ajuan
samp
penting
demi
kemajuan
tah
tak
harapan
semangat
kas
##oga
dikelola
##cara
##yek
tem
##tung
banget
pemb
pertamina
kok
negeri
##ali
digital
##ujud
pasti
soal
ken
nyata
cerah
##ay
berd
koruptor
us
##ejahtera
##faat
##struktur
para
##ihat
solusi
202
kol
perekonomi
##ingkatkan
badan
jangan
sukses
bangsa
perekonomian
##kuat
infra
##ejahteraan
dia
kesejahteraan
##ilang
##embang
##ue
semoga
pend
sekarang
infrastruktur
##ca
##ayaan
seperti
biar
##alui
gerak
##aik
melalui
##abat
malah
mbg
investor
cuma
seg
##uan
program
##arik
optimis
kom
lah
kasus
jd
perub
anggaran
##uatan
perubahan
##ugi
peluang
saat
##ust
##orasi
menc
proyek
utk
##itu
##dh
sej
bl
##ampak
##rah
dorong
##tm
saham
energi
bener
##hebat
ko
##bil
##das
efisien
kam
##anj
strategi
saja
##usaha
##ekonomihebat
##ij
gerakcepat
ser
gerakcepatekonomihebat
##ika
jelas
##bn
##awab
##mp
dapat
dulu
semakin
mana
bera
membawa
##ani
##entuk
satu
modal
lain
##me
dir
mah
##aborasi
saing
transparansi
aw
##ck
prof
##tangan
##kwkw
##imp
hanya
##gerak
mendukung
salah
##iat
##lik
kekayaan
berb
mari
bantu
tuh
##anc
kekuatan
##mu
ting
##jadi
secara
##ungkin
pl
##osan
kolaborasi
##ingan
hasil
komi
tantangan
##was
##elah
##apa
su
berh
##ic
keh
sk
seti
hari
kerja
meny
##itik
mengh
##ig
##ujudkan
##und
berita
jalan
##ev
##asan
set
gw
nanti
##tara
kelola
dgn
##ejabat
mengelola
kons
gag
##uar
##indonesi
##iliun
##ipta
##tikan
##akah
##tinya
gim
min
tau
belum
tahun
pejabat
##indonesia
aku
siapa
dr
##urus
agar
##ers
##tama
##ru
apbn
pin
kayak
##lu
triliun
manfaat
tek
kab
sta
##ni
##alkan
mantan
##aling
jika
gue
##mas
gimana
kata
##usahaan
##ec
##tmen
tp
pil
tepat
##uncurkan
##unj
##alagi
##ijakan
sb
visi
lemb
##ala
##ungan
ti
anj
##sinya
##ilik
##gak
pub
setiap
##ern
dl
##ist
klo
org
bg
kpk
perusahaan
gagal
##iden
apalagi
isu
apakah
##ogi
dew
kunc
nih
tanpa
emas
##iptakan
##ac
bag
##yo
terl
ikn
rp
##usantara
pertama
##angs
dit
do
##tal
seh
penuh
politik
era
resm
##impin
terk
utama
buk
sangat
bareng
anak
tekn
ar
bu
##sg
pasar
##utuh
pake
kunci
bagus
ab
mungkin
uu
emang
nusantara
aman
teta
kebijakan
##duk
sub
sed
##angsung
tangg
##ologi
##ikir
krn
jawab
ment
beg
bpk
##tas
sby
ny
td
komitmen
##ump
solid
dipak
tim
##ira
##aud
ek
inisi
lembaga
##ding
bangun
langsung
teknologi
##aa
bahwa
kec
##ungg
sampai
##adapi
##apak
efek
yuk
ikut
kehadir
##apai
memperkuat
sp
memberi
ih
kehadiran
mo
tol
kont
did
##usif
awal
##umber
om
yakin
##ond
membangun
##asek
hal
komp
##unjuk
id
##rak
peluncur
kenapa
beb
dah
tdk
publik
wak
##idup
##hir
##nis
sumber
produk
bgt
wujudkan
tinggi
br
##ihan
kalian
##le
ihsg
##ban
jg
##erasi
ing
bapak
##entang
atas
##aman
dpr
##ono
peran
lok
##ebut
##esional
tingkatkan
masalah
kami
peluncuran
ketu
keluar
resmi
##nyata
profesional
##lim
inovatif
##bers
dampak
mera
beli
##audit
div
sendiri
2025
optimalkan
dewan
##ingga
ayo
dih
perlu
##abis
##ont
##amin
##ng
##sim
mendorong
sep
##ianto
##ilai
##ark
tuju
bangk
##asis
##okus
aud
tentang
##end
ch
makan
bilang
##enc
inisiatif
bisnis
##emp
optimalisasi
nggak
setelah
cara
##ura
##uu
##entukan
gini
lo
##20
audit
tarik
anag
iklim
sm
mandiri
temasek
##idasi
##ajak
##ayar
berdaya
pertamax
##mana
meningkatkan
kota
berkembang
ketua
anagata
##uasa
inter
##oba
##untung
##aku
cer
ters
##awasi
luh
ri
wkwkw
usaha
##ambah
##atang
##bersam
liat
terh
antar
rosan
hidup
##rib
tetap
menteri
pad
##amat
optimisme
##elum
ternyata
ndas
##ee
diaudit
gitu
##yono
##esat
luar
buruh
##olidasi
ram
nas
##lok
stabil
sampe
pembentukan
dividen
bur
hati
lihat
up
##hh
baca
sebelum
pun
pers
fokus
sal
benar
lokal
luhut
tera
adanya
24
mulai
##ondasi
arah
##na
##osi
##jalan
##zz
##ikasi
rugi
subianto
##arah
##awah
lalu
##aprabowo
##bersamaprabowo
din
##urun
mengg
##kl
buruhbersamaprabowo
ji
##rg
berbagai
penggerak
##anggung
paham
kemar
kh
kini
##uangan
ndasmu
gelap
##25
##urang
has
##tuju
bol
##ibat
terjadi
##akukan
##mb
##abah
lg
##embangan
pand
berp
sup
keuangan
keren
##uc
to
##egang
par
##kap
##nah
memang
selalu
nam
war
##astikan
##ambil
aj
kat
seluruh
bagai
##angka
hadirnya
##adap
##cr
paling
udh
menciptakan
naik
kasih
nasabah
ked
ten
##raya
ja
lap
tel
##spi
##awat
jab
mulyono
anda
##kwk
pengawasan
##esmian
##tip
peresmian
##kn
sing
##arkan
##li
membuka
cerdas
dong
##mn
##ribusi
buka
##olding
##entingan
jel
tangan
##wasraya
##usan
##ede
##oo
fin
##eo
jabatan
butuh
##ii
membuat
##uncul
##000
ah
sdh
be
mal
kepentingan
sh
##th
coba
##ila
dll
deh
tu
##jah
indust
sekali
terhadap
jiwasraya
##ahal
##anjang
##zzer
katanya
rib
##unggu
##ko
pernah
kak
rek
##db
segar
##anantara
main
bagian
##anjut
konsolidasi
ide
hingga
ses
the
swas
kond
super
##alik
nama
##af
jud
industri
angin
ro
##ony
padahal
sist
um
##abung
##ulan
seben
##awatir
sistem
##get
menya
akhir
feb
##uran
##san
##apan
bagaimana
##spirasi
##ulai
and
menarik
buzzer
memberikan
sus
##eti
memastikan
senin
tar
kre
##enuh
tujuan
1m
kokoh
hasto
invest
diluncurkan
pengurus
serta
##asiswa
antara
akun
##oc
diper
##ajukan
efektif
milik
muncul
bert
bukti
mis
##gal
sejahtera
ku
##ke
##ro
##optim
dg
tni
##aikan
gas
##untuk
##rti
waj
##ator
pajak
panjang
##yang
inkl
##arnya
##awan
bayar
##erja
bersi
demo
ps
peny
##ji
1mdb
ib
##ratis
melihat
swasta
temp
##ef
manta
turun
untung
##man
##jak
##unakan
tangguh
##urut
keber
jauh
##2025
li
##te
##air
memajukan
maksim
gub
##emen
##engah
indo
##esmikan
mahasiswa
el
pindah
iya
boleh
##lang
##percayaan
biasa
##ilir
##omp
##umen
salut
eh
##lis
##pres
##evel
##str
##optimalkan
sw
##rut
saatnya
##ernur
##inta
dimulai
##bankan
fondasi
terbuka
gubernur
bes
kena
berhasil
gk
beneran
berarti
kecil
##yk
##ruari
cepat
ni
##unjukkan
inklusif
hebat
tumbuh
februari
##onakan
##adar
berani
selama
kah
##ood
##sia
perk
dipake
im
##ambut
gua
mantap
kerugi
res
skrg
gratis
##ahkan
##ite
orang2
eks
##ait
bergerak
omon
berdampak
##pada
##gg
singap
bup
mu
mudah
bupati
duitnya
bos
##alis
pengal
waktu
##di
intern
motor
keluarga
nah
##teg
14
gem
hadapi
##abri
##upa
##embatan
##esl
kepercayaan
harga
lama
##erapa
bahas
bawah
##apun
pera
harusnya
##masuk
ist
keuntung
ngga
##tika
pengalihan
##oner
swf
##han
bahkan
##crp
tib
##investasi
kemarin
gede
level
2029
pan
##ye
takut
tiap
la
##isme
datang
struktur
ruu
##io
##ersi
dikorup
kerugian
habis
sambut
polri
##gan
perbankan
##idikan
termasuk
##tul
maka
sepenuh
tambah
##una
##abungan
oc
##iliki
##eksi
mending
berharap
sedang
fak
##ba
##alitas
##utup
kira
##if
##pun
##jung
asabri
##eda
bub
jak
ka
##aut
kamu
semen
hadirkan
##eslani
10
bs
of
##tak
dic
just
mengoptimalkan
pakai
kepala
tt
##ry
wkwk
instr
geb
##orang
penj
##danantara
dij
##encana
occrp
meg
seri
##kk
##sh
##bah
##antu
kali
menghadapi
produktif
visioner
bri
jangka
ex
gen
##rakan
trus
jembatan
mamp
##ma
##aruh
merah
bentuk
instrumen
kurang
selamat
bangkit
dijadi
pendidikan
pesat
##res
##ansi
##ord
##asar
##arat
pemerintahan
100
##ihak
pakar
rev
kreatif
keuntungan
fund
##uru
mes
katalis
terkait
bp
sbg
##asin
begitu
istana
mili
##2an
##port
menurut
##awal
##utif
terj
dlm
##anan
amb
hilir
danantarauntuk
posisi
bb
es
jgn
ra
disi
##oritas
tinggal
justru
holding
pul
##km
##ingk
jadikan
minta
hut
mew
kepada
gebrakan
isinya
kamp
nilai
banc
melangkah
laut
yo
##ekan
roeslani
pri
sehat
##sb
##ahah
##upakan
##ubah
diresmikan
abis
ciptakan
tra
##set
##usnya
digitalisasi
##re
opl
ambil
utang
setuju
tahu
target
dev
kor
no
##ly
blair
namanya
miliar
diri
terbaik
soalnya
bca
pet
##agar
ur
##ank
pelaku
maksimal
sementara
bancakan
##imb
kebal
beberapa
bersih
##aing
##2nya
begini
dinam
mom
pd
##co
balik
gt
##empatan
besok
19
rum
##prabowo
akhirnya
##aks
##egas
ngurus
doang
wkwkwk
kondusif
cont
sat
##ras
perkuat
memiliki
##idang
mati
##ere
terp
simp
malay
akunta
##bl
##aru
##engkap
##omong
terc
##alih
tiba
dikorupsi
hilirisasi
tabungan
##uy
##yi
bersaing
berg
sini
sejak
pilar
##arta
berl
maj
ceo
tata
##sol
mata
menjadikan
luas
gara
on
##tiv
lh
diawasi
rez
warga
tony
##iah
##olah
##ilih
##masalah
pt
tet
##der
pandu
##tis
tik
top
##ss
ket
ketika
nger
kompeti
eri
tingkat
##adang
pengembangan
pu
penas
ngomong
uangnya
titip
malaysia
pihak
##anfaat
##taan
##angkat
##ima
lainnya
konsep
bo
jamin
dibuat
ingin
cap
##entu
anjlok
dipakai
cuk
dek
##untu
singapura
bubar
danantarauntukindonesia
bod
daripada
##umpul
cari
##uai
##uanya
##ungsi
##okoh
##angkap
sekadar
terarah
##ran
##enya
kement
plat
keter
##ongan
ngeri
##ohir
##arapkan
kap
lupa
##engg
mampu
we
##ka
##resi
makanya
bangga
kesempatan
kn
rezim
adili
penc
pendek
erick
##anfaatkan
atur
##ben
bersin
##tusi
tersebut
mon
ujung
##ch
##agian
##impi
bebas
car
##esin
mencapai
internasional
air
gila
##uah
bangkrut
dap
meningkat
contoh
mir
dilakukan
sak
##unikasi
berjalan
keti
presidenprabowo
terlalu
terbesar
##ancur
kontribusi
rep
rup
gam
pagar
##cah
##stem
tepatsol
gar
dananya
##asib
merupakan
lb
finalis
keta
trust
bakalan
janj
##emas
##asanya
lapangan
mikir
##ect
spt
##utifindonesia
tepatsolutifindonesia
lin
##dul
##edia
cor
##iti
##rik
bersatu
selain
deviden
dasar
##pon
tanah
diharapkan
bek
##itra
khawatir
ekon
##ubung
jakarta
serius
kompetitif
nan
##sk
##unch
pastikan
segala
blm
artinya
beliau
rame
perkembangan
hilang
##asama
##oll
##erakan
umkm
bidang
ganti
##ehat
mempercepat
dinamis
cukup
##oy
##dal
terd
##uda
eng
rumah
ekonom
tam
wowo
##ku
##kar
kej
olig
alat
supaya
kag
hutang
hr
bahasa
da
##uf
siang
##utusan
pilpres
mewujudkan
dua
telah
##gas
##kont
##agu
dibentuk
cuc
lab
##dak
negatif
##tanya
##inet
ama
sebelumnya
sesuai
##hasil
susah
oligark
juju
##ernya
tul
maling
##uhan
mac
kemb
info
upaya
tengah
bayang
meluncurkan
ttg
mimpi
wh
tempat
dapet
##ily
kabinet
nom
pimpin
##pt
##ex
##ingg
sebuah
kancah
lahir
jujur
loh
tw
##tion
majukan
titipan
niat
##uri
support
gmn
lingk
semuanya
tolol
dijadikan
##ret
real
des
lanjut
pat
##ign
##lo
pemimpin
karna
liga
mr
ph
pus
pagi
##ve
membantu
masi
##angga
berin
##okasi
dimana
pp
##lan
##asuk
betul
beda
bern
alasan
##acu
tolak
total
prioritas
tunjukkan
wal
##tt
melesat
usah
parta
sebenarnya
bt
kampan
allah
##anjikan
jelasin
launch
janji
##yah
was
inspirasi
perb
anjing
ekosi
oligarki
bulan
kelas
oke
##ny
##men
##ejak
ekosistem
vid
integ
dikasih
rec
peramp
tetep
pendekatan
km
##ral
##unan
##omb
go
##jokowi
##ulit
aneh
##ingkatan
iss
leg
yaa
##ajar
##ts
percepat
keputusan
pln
kedepan
capai
sov
##dang
##enang
##erik
ngelola
kabur
luncurkan
##oran
ngel
##saan
tsb
##isan
kin
keg
land
sy
##rr
##ews
##otensi
penasehat
##50
##ate
##ess
rp1
kri
ponakan
##rir
##mm
menjaga
##uasaan
rupiah
rencana
##sip
menjanjikan
sehar
##hasilan
me
perjalan
emg
##engkapnya
mar
ntar
sah
terima
##erima
bermasalah
indep
##ulasi
##atas
modern
hrs
hancur
aksi
##bilitas
mirip
kampanye
##kah
##eks
memanfaatkan
asal
doa
tolong
dipercaya
pemain
oplosan
##egaskan
##ereign
guy
##ion
##kom
##lic
##kandal
sign
sebesar
merugi
##tarik
##jahat
misal
##ritas
ins
karya
bahan
phk
sovereign
perjalanan
jejak
##pen
##tes
##ine
##erian
pengen
##tambah
orangorang
terkorup
risi
wah
##jad
biaya
penjelas
##oni
##esang
berpotensi
##kontribusi
300
diisi
diambil
berkontribusi
##ilah
pengg
maaf
ibu
bud
skandal
yah
##alang
##umlah
peningkatan
kemana
tokoh
##atuh
terob
##usak
##inggi
##ity
ormas
bukannya
berapa
##ancar
buruk
##gantung
gaji
digunakan
disuruh
##igh
organ
##ibatkan
kaesang
ta
tanya
##pd
##ening
##ingat
amat
generasi
launching
pikir
##antas
ina
semp
model
manaj
tetapi
landasan
reg
sd
##hawatir
##lh
##alaman
##asihat
suara
buktikan
pusat
##ey
##alth
pengawasnya
pilih
jawaban
namun
judol
mark
prab
ketah
##adirkan
mega
signif
suka
##bu
situ
thohir
kementerian
issue
signifikan
cal
##inasi
##bangkan
pertal
all
ris
resi
##kut
##sar
##omunikasi
pengh
kemungkin
minim
##utuhan
ngerti
organisasi
pegang
##peran
kayaknya
kembali
terobosan
sor
tas
dorongan
##undang
judi
##jadulu
bus
jo
kian
nasib
##ell
maks
##usia
tanggung
dekat
nantinya
nunggu
nutup
##pek
##ant
##egara
berperan
##ekomunikasi
pendorong
sejarah
ingat
242
tentu
##wujud
##int
terang
##bangan
pemil
penasihat
kekuasaan
telekomunikasi
aturan
tunggu
##ris
##ps
##uas
##sek
berj
##uncak
kerj
cuman
keberhasilan
isi
kyk
seng
via
##atur
##apain
##tup
kebutuhan
kesukses
bni
gov
ped
##bi
##est
##olak
memak
anc
selengkapnya
##erakhir
bahl
laba
gel
na
penguasa
sebagian
##iral
bab
food
ladang
tuk
##ota
##zi
##ement
##olusi
##itar
simb
melakukan
keponakan
hasilnya
telkom
daerah
kesuksesan
good
kapan
versi
##hati
##cak
##uatu
peman
##udian
##abisa
jelek
##jahrir
sebenernya
petinggi
wealth
indepen
kemungkinan
msh
ala
berikut
indonesiagelap2025
anjir
bro
##tujuan
wajar
gerakan
##ug
##titas
##ajaran
##tment
independen
cek
data
lancar
puncak
sana
##be
belak
ribuan
misi
##aja
##erita
baj
2024
partai
simbol
##buk
##ela
##isis
pertanya
##benar
